<unk>	0
<s>	0
</s>	0
▁이	-0
▁1	-1
에서	-2
으로	-3
▁2	-4
▁대	-5
▁사	-6
▁있	-7
▁그	-8
▁수	-9
▁시	-10
▁지	-11
▁가	-12
▁20	-13
▁전	-14
▁것	-15
▁기	-16
▁하	-17
▁한	-18
▁아	-19
▁무	-20
했다	-21
▁19	-22
▁정	-23
▁제	-24
▁일	-25
었다	-26
인가	-27
▁중	-28
하는	-29
▁주	-30
▁어	-31
▁인	-32
하였	-33
▁자	-34
▁보	-35
▁유	-36
▁공	-37
▁위	-38
▁조	-39
▁부	-40
▁발	-41
▁경	-42
▁나	-43
▁다	-44
는가	-45
▁연	-46
▁영	-47
▁3	-48
하고	-49
▁선	-50
▁미	-51
▁비	-52
▁해	-53
▁무엇	-54
▁소	-55
▁의	-56
▁국	-57
▁모	-58
▁오	-59
▁세	-60
▁개	-61
▁동	-62
▁마	-63
▁등	-64
▁스	-65
▁201	-66
▁200	-67
▁있다	-68
하여	-69
▁신	-70
▁여	-71
▁때	-72
에게	-73
▁후	-74
▁상	-75
▁되	-76
▁고	-77
▁도	-78
하였다	-79
▁구	-80
라고	-81
▁프	-82
▁관	-83
▁만	-84
▁서	-85
▁"	-86
▁4	-87
▁당	-88
▁이름	-89
▁방	-90
▁5	-91
▁장	-92
▁성	-93
에는	-94
▁몇	-95
▁최	-96
▁사람	-97
으며	-98
▁김	-99
▁내	-100
▁않	-101
▁결	-102
▁받	-103
▁노	-104
▁대한	-105
▁통	-106
이다	-107
▁누	-108
▁있는	-109
들이	-110
▁출	-111
▁교	-112
적인	-113
▁문	-114
▁반	-115
▁원	-116
▁진	-117
▁강	-118
▁것은	-119
▁말	-120
▁바	-121
▁불	-122
▁이름은	-123
라는	-124
지만	-125
▁거	-126
부터	-127
▁생	-128
▁포	-129
적으로	-130
▁10	-131
들은	-132
▁없	-133
▁계	-134
▁명	-135
까지	-136
하기	-137
▁남	-138
▁역	-139
▁안	-140
▁로	-141
▁우	-142
▁작	-143
학교	-144
▁실	-145
면서	-146
▁또	-147
▁6	-148
▁누구	-149
하게	-150
▁무엇인가	-151
▁위해	-152
한다	-153
▁미국	-154
▁파	-155
▁《	-156
▁'	-157
되었다	-158
▁언	-159
▁차	-160
▁알	-161
▁단	-162
▁7	-163
▁현	-164
▁박	-165
▁두	-166
▁8	-167
00	-168
▁재	-169
▁분	-170
▁이후	-171
▁요	-172
▁된	-173
▁예	-174
▁타	-175
▁올	-176
▁따	-177
는데	-178
▁일본	-179
▁배	-180
▁더	-181
에서는	-182
▁데	-183
▁리	-184
다고	-185
▁에	-186
▁평	-187
▁함	-188
▁독	-189
되었	-190
▁같	-191
▁설	-192
▁감	-193
주의	-194
▁피	-195
▁종	-196
▁당시	-197
들의	-198
▁추	-199
▁음	-200
▁많	-201
스트	-202
▁9	-203
▁입	-204
▁특	-205
▁과	-206
▁시작	-207
▁것이	-208
▁열	-209
▁베	-210
▁번	-211
▁매	-212
▁건	-213
▁군	-214
▁어떤	-215
들을	-216
▁사람은	-217
았다	-218
되어	-219
▁18	-220
였다	-221
▁행	-222
▁처	-223
▁민	-224
▁참	-225
레이	-226
▁활	-227
▁적	-228
▁새	-229
▁총	-230
▁한국	-231
▁자신	-232
▁초	-233
▁학	-234
▁12	-235
▁달	-236
▁라	-237
▁회	-238
▁때문	-239
▁11	-240
▁어디	-241
▁태	-242
▁기록	-243
으나	-244
▁199	-245
▁영화	-246
▁외	-247
▁북	-248
리아	-249
▁카	-250
▁운	-251
▁사용	-252
들어	-253
다는	-254
▁지역	-255
▁함께	-256
▁크	-257
▁대해	-258
▁집	-259
▁청	-260
▁승	-261
▁그리	-262
▁곳	-263
▁직	-264
▁물	-265
▁누구인가	-266
▁드	-267
스의	-268
er	-269
통령	-270
▁변	-271
▁왕	-272
년에	-273
▁임	-274
▁가장	-275
하며	-276
▁양	-277
▁그러	-278
▁또한	-279
▁경기	-280
스는	-281
▁것을	-282
▁호	-283
하지	-284
▁형	-285
▁S	-286
▁브	-287
▁했다	-288
▁저	-289
▁약	-290
▁주장	-291
▁대통령	-292
▁프로	-293
▁투	-294
▁같은	-295
▁세계	-296
▁확	-297
▁목	-298
▁되었다	-299
▁국가	-300
▁못	-301
이라고	-302
리는	-303
했던	-304
▁표	-305
▁황	-306
▁트	-307
▁토	-308
▁첫	-309
▁게	-310
▁다른	-311
도는	-312
▁본	-313
▁그는	-314
▁점	-315
▁항	-316
▁한다	-317
▁체	-318
▁화	-319
▁프랑	-320
▁M	-321
▁간	-322
▁통해	-323
▁판	-324
▁산	-325
▁존	-326
기를	-327
▁정부	-328
in	-329
▁언제	-330
에도	-331
▁있었	-332
기는	-333
▁어느	-334
▁198	-335
▁각	-336
▁따라	-337
▁법	-338
▁근	-339
스가	-340
되는	-341
▁중국	-342
상을	-343
지는	-344
▁및	-345
▁그러나	-346
▁년	-347
an	-348
시아	-349
▁때문에	-350
▁활동	-351
▁선수	-352
▁광	-353
▁돌	-354
on	-355
리를	-356
▁앨	-357
▁15	-358
▁사건	-359
▁영국	-360
▁T	-361
▁증	-362
▁처음	-363
▁뒤	-364
▁(	-365
회의	-366
▁날	-367
▁사이	-368
▁필	-369
▁많은	-370
),	-371
▁17	-372
▁있었다	-373
▁살	-374
▁속	-375
▁B	-376
▁큰	-377
▁메	-378
▁것으로	-379
기에	-380
▁합	-381
▁밝	-382
민국	-383
▁16	-384
▁코	-385
했고	-386
위를	-387
▁금	-388
▁아니	-389
▁할	-390
▁레	-391
▁A	-392
▁인물	-393
▁패	-394
▁시즌	-395
▁독일	-396
사를	-397
▁맡	-398
기도	-399
이나	-400
▁곳은	-401
▁심	-402
▁복	-403
자는	-404
▁창	-405
▁연구	-406
▁하는	-407
▁치	-408
▁페	-409
▁사회	-410
▁천	-411
▁C	-412
▁야	-413
대로	-414
▁논	-415
▁F	-416
▁번째	-417
▁발표	-418
▁문제	-419
▁경우	-420
▁대한민국	-421
이었	-422
하면서	-423
▁높	-424
▁병	-425
▁죽	-426
▁삼	-427
▁팀	-428
▁“	-429
▁그의	-430
▁얼	-431
▁들어	-432
지를	-433
▁순	-434
▁폭	-435
▁권	-436
▁디	-437
▁의해	-438
▁해는	-439
▁앨범	-440
▁그리고	-441
▁취	-442
▁대표	-443
▁‘	-444
▁철	-445
▁〈	-446
리스	-447
▁아이	-448
▁자신의	-449
▁하나	-450
이라는	-451
ar	-452
▁정치	-453
▁다시	-454
he	-455
▁네	-456
▁서울	-457
▁플	-458
성을	-459
▁전쟁	-460
▁완	-461
리가	-462
했는가	-463
▁197	-464
▁가지	-465
일에	-466
이라	-467
▁검	-468
▁편	-469
랜드	-470
▁백	-471
▁조선	-472
▁발매	-473
력을	-474
▁충	-475
들에게	-476
인이	-477
▁것이다	-478
▁곡	-479
▁일어	-480
림픽	-481
▁모두	-482
▁앞	-483
▁협	-484
나라	-485
▁194	-486
이는	-487
▁된다	-488
▁이상	-489
000	-490
▁규	-491
▁버	-492
▁되었	-493
▁이루	-494
▁뉴	-495
▁여러	-496
▁D	-497
▁모든	-498
▁걸	-499
인의	-500
인은	-501
▁생각	-502
▁친	-503
▁무엇을	-504
세기	-505
하였는가	-506
장을	-507
en	-508
▁음악	-509
▁준	-510
보다	-511
대의	-512
▁196	-513
▁L	-514
졌다	-515
▁이어	-516
▁맞	-517
▁새로	-518
▁이유	-519
하였고	-520
▁히	-521
도록	-522
▁공격	-523
▁책	-524
▁발견	-525
▁최초	-526
▁쓰	-527
▁감독	-528
▁13	-529
▁하였다	-530
▁출연	-531
▁허	-532
▁월	-533
▁영향	-534
수는	-535
▁채	-536
▁위한	-537
▁폴	-538
이었다	-539
or	-540
▁애	-541
▁프랑스	-542
위원	-543
▁2010	-544
▁캐	-545
▁여성	-546
서는	-547
▁참여	-548
정을	-549
기가	-550
▁민주	-551
▁얻	-552
대학교	-553
▁195	-554
들과	-555
▁윤	-556
▁홍	-557
▁러	-558
▁끝	-559
▁어디인가	-560
▁I	-561
▁받은	-562
▁클	-563
▁사실	-564
▁진행	-565
▁이는	-566
▁루	-567
▁발생	-568
▁2009	-569
▁결과	-570
▁언제인가	-571
▁손	-572
자의	-573
▁14	-574
▁후보	-575
자가	-576
es	-577
▁하였	-578
리의	-579
▁관련	-580
▁이러	-581
된다	-582
이며	-583
▁현재	-584
▁벌	-585
사는	-586
▁싱	-587
▁막	-588
▁2008	-589
되고	-590
▁올림픽	-591
▁이러한	-592
▁가능	-593
▁케	-594
▁담	-595
도를	-596
▁인물은	-597
▁로마	-598
▁했	-599
▁이용	-600
▁동안	-601
▁국민	-602
▁운동	-603
▁음반	-604
년대	-605
시키	-606
디오	-607
▁경제	-608
▁2011	-609
▁질	-610
▁블	-611
▁환	-612
슈타	-613
▁하지만	-614
▁일부	-615
대를	-616
▁탈	-617
▁30	-618
▁극	-619
▁테	-620
▁데뷔	-621
▁귀	-622
▁작품	-623
성이	-624
▁P	-625
▁나타	-626
▁전투	-627
▁시간	-628
▁포함	-629
로서	-630
▁K	-631
▁사망	-632
니아	-633
▁잡	-634
al	-635
▁빌	-636
▁싱글	-637
이트	-638
스터	-639
▁역할	-640
대는	-641
하다	-642
▁넘	-643
▁별	-644
▁비판	-645
▁대학	-646
▁도시	-647
사가	-648
▁존재	-649
▁2012	-650
▁자유	-651
▁받아	-652
▁온	-653
명의	-654
▁얼마	-655
▁악	-656
▁유럽	-657
▁있던	-658
르는	-659
▁이루어	-660
▁밀	-661
장은	-662
▁있어	-663
스를	-664
▁이에	-665
▁인해	-666
란드	-667
▁W	-668
▁등의	-669
▁정도	-670
군의	-671
▁R	-672
▁열린	-673
▁대회	-674
▁측	-675
가는	-676
19	-677
▁조직	-678
▁육	-679
거나	-680
▁관계	-681
at	-682
▁용	-683
부분	-684
▁제작	-685
▁난	-686
▁뮤	-687
▁차지	-688
▁E	-689
▁최고	-690
에서도	-691
원이	-692
▁방송	-693
▁결정	-694
▁새로운	-695
▁이를	-696
사의	-697
▁좋	-698
▁커	-699
▁인터	-700
▁국제	-701
▁축	-702
▁계획	-703
▁평가	-704
하면	-705
▁헤	-706
▁잘	-707
▁않는	-708
▁다음	-709
권을	-710
그램	-711
20	-712
스와	-713
▁2007	-714
▁탄	-715
▁접	-716
국의	-717
로부터	-718
▁암	-719
이고	-720
월에	-721
라마	-722
제는	-723
▁제목	-724
원을	-725
▁러시아	-726
▁2014	-727
화를	-728
▁갖	-729
▁찾	-730
▁북한	-731
드는	-732
식을	-733
▁은	-734
▁소속	-735
▁볼	-736
제가	-737
자를	-738
등학교	-739
▁돌아	-740
▁스타	-741
▁N	-742
▁구성	-743
▁년도는	-744
▁줄	-745
▁G	-746
▁노래	-747
▁필요	-748
장이	-749
▁H	-750
▁계속	-751
▁하고	-752
▁들	-753
제를	-754
▁있으며	-755
▁성공	-756
원은	-757
스타	-758
▁골	-759
대가	-760
▁폐	-761
▁혼	-762
▁즉	-763
로는	-764
하려	-765
▁머	-766
나요	-767
▁나라	-768
대학	-769
▁100	-770
▁만들어	-771
번째	-772
▁게임	-773
▁<	-774
▁갈	-775
▁부분	-776
전을	-777
▁보고	-778
ic	-779
,000	-780
▁엔	-781
is	-782
▁효	-783
라이	-784
자로	-785
▁등을	-786
▁문화	-787
▁농	-788
▁알려	-789
기의	-790
▁절	-791
▁만들	-792
▁식	-793
▁침	-794
▁받았	-795
▁마지	-796
▁없는	-797
▁시기는	-798
기로	-799
니까	-800
하던	-801
▁떠	-802
▁교육	-803
it	-804
▁힘	-805
개의	-806
명을	-807
▁정책	-808
▁중심	-809
le	-810
▁길	-811
▁쿠	-812
▁2013	-813
해야	-814
▁일반	-815
▁위치	-816
▁대부분	-817
▁이론	-818
▁요구	-819
원의	-820
지가	-821
▁되어	-822
▁방법	-823
▁와	-824
민주	-825
▁한편	-826
▁드라마	-827
▁마지막	-828
▁이미	-829
군이	-830
위에	-831
학자	-832
▁25	-833
▁워	-834
우스	-835
▁설립	-836
와의	-837
해서	-838
렸다	-839
▁수상	-840
정부	-841
▁경찰	-842
했으며	-843
운동	-844
▁타이	-845
▁글	-846
과의	-847
나는	-848
▁늑	-849
▁가지고	-850
▁결국	-851
▁월드	-852
▁이전	-853
▁영향을	-854
▁급	-855
시에	-856
▁처음으로	-857
▁193	-858
간의	-859
처럼	-860
▁많이	-861
▁독립	-862
전에서	-863
▁않았	-864
▁개발	-865
ou	-866
ing	-867
▁공연	-868
도의	-869
▁이것	-870
년에는	-871
▁향	-872
성의	-873
인을	-874
▁아니라	-875
▁특히	-876
▁있는가	-877
▁빠	-878
대중	-879
▁그녀	-880
▁상황	-881
▁연기	-882
▁먹	-883
▁따르	-884
▁U	-885
도가	-886
▁기술	-887
▁2016	-888
리카	-889
▁선거	-890
▁받았다	-891
▁뜻	-892
▁반대	-893
▁제목은	-894
re	-895
▁핵	-896
수가	-897
군은	-898
▁중요	-899
제로	-900
▁밝혔	-901
▁말했다	-902
▁t	-903
▁송	-904
제의	-905
▁리그	-906
▁프로그램	-907
도에	-908
▁않은	-909
."	-910
▁내용	-911
▁피해	-912
▁헌	-913
▁상태	-914
▁배우	-915
▁일으	-916
리에	-917
▁계약	-918
음을	-919
지에	-920
년부터	-921
력이	-922
▁노동	-923
▁또는	-924
▁수도	-925
▁역사	-926
났다	-927
▁라이	-928
▁않았다	-929
장의	-930
하는가	-931
▁미국의	-932
대에	-933
▁21	-934
근혜	-935
였던	-936
지의	-937
▁같이	-938
▁기간	-939
▁지방	-940
▁2017	-941
▁콘	-942
어는	-943
에서의	-944
▁있다고	-945
회를	-946
점을	-947
▁인정	-948
이자	-949
명은	-950
▁않고	-951
▁등장	-952
▁·	-953
▁높은	-954
머니	-955
소는	-956
▁공개	-957
▁대신	-958
▁종교	-959
하기도	-960
하였으며	-961
▁2015	-962
▁면	-963
▁191	-964
▁오스트	-965
되지	-966
▁직접	-967
▁소련	-968
▁느	-969
레스	-970
수를	-971
▁싸	-972
▁베이	-973
▁범	-974
▁설치	-975
▁우승	-976
▁아버	-977
el	-978
▁쇼	-979
▁개최	-980
▁태양	-981
▁묘	-982
수의	-983
▁의미	-984
▁과정	-985
되었고	-986
▁형태	-987
▁발전	-988
▁박근혜	-989
트의	-990
▁학생	-991
▁따르면	-992
시켰	-993
치는	-994
▁만든	-995
▁니	-996
명이	-997
▁무슨	-998
되었는가	-999
이가	-1000
▁구조	-1001
▁프리	-1002
▁몰	-1003
▁가진	-1004
▁김대중	-1005
▁팔	-1006
▁선정	-1007
다가	-1008
트는	-1009
▁되는	-1010
▁문재	-1011
▁시민	-1012
▁혁	-1013
▁다양	-1014
정희	-1015
▁등이	-1016
▁터	-1017
하자	-1018
▁상대	-1019
▁지지	-1020
▁표현	-1021
▁매우	-1022
▁키	-1023
▁과학	-1024
▁이야	-1025
문을	-1026
▁뮤직	-1027
당한	-1028
▁2006	-1029
▁봉	-1030
▁모습	-1031
비아	-1032
▁없다	-1033
시간	-1034
▁지원	-1035
▁잠	-1036
선을	-1037
왔다	-1038
▁공식	-1039
리즈	-1040
명한	-1041
▁수는	-1042
▁언론	-1043
드의	-1044
치를	-1045
▁학교	-1046
▁군사	-1047
▁판매	-1048
▁업	-1049
르크	-1050
임을	-1051
▁지구	-1052
▁192	-1053
▁좌	-1054
도로	-1055
▁최초로	-1056
이지	-1057
▁강희	-1058
▁중앙	-1059
▁여자	-1060
▁역시	-1061
대표	-1062
으로써	-1063
부의	-1064
▁때는	-1065
▁전체	-1066
일에는	-1067
▁밝혔다	-1068
▁희	-1069
▁결혼	-1070
▁출신	-1071
▁정규	-1072
▁2004	-1073
ol	-1074
당의	-1075
▁보여	-1076
성은	-1077
▁22	-1078
▁2005	-1079
▁태어	-1080
위원회	-1081
위는	-1082
▁노무	-1083
st	-1084
▁J	-1085
▁퍼	-1086
▁날짜	-1087
▁것이라고	-1088
▁칼	-1089
대한	-1090
▁대상	-1091
▁주요	-1092
▁방문	-1093
리고	-1094
▁단체	-1095
▁출전	-1096
▁역할을	-1097
of	-1098
▁격	-1099
▁맨	-1100
ion	-1101
▁휴	-1102
으로서	-1103
▁섬	-1104
▁슈	-1105
▁홈	-1106
》(	-1107
▁24	-1108
▁대학교	-1109
니다	-1110
이스	-1111
▁공동	-1112
▁맥	-1113
업을	-1114
트를	-1115
▁주로	-1116
므로	-1117
시킨	-1118
했다고	-1119
어를	-1120
▁숙	-1121
지로	-1122
▁유지	-1123
▁티	-1124
격을	-1125
▁데이	-1126
▁비롯	-1127
독교	-1128
▁2003	-1129
의를	-1130
▁운영	-1131
▁조사	-1132
▁월드컵	-1133
▁기준	-1134
▁몸	-1135
▁압	-1136
멤버	-1137
상의	-1138
▁레이	-1139
으로부터	-1140
▁나카	-1141
▁관한	-1142
BS	-1143
었고	-1144
진이	-1145
▁뉴욕	-1146
▁맡은	-1147
▁석	-1148
▁190	-1149
▁인간	-1150
▁벤	-1151
어진	-1152
장에	-1153
▁뿐	-1154
계를	-1155
▁이탈	-1156
▁자기	-1157
▁O	-1158
▁고려	-1159
▁있다는	-1160
▁눈	-1161
동안	-1162
▁기원	-1163
▁멤버	-1164
▁날짜는	-1165
▁노무현	-1166
▁참가	-1167
▁나라는	-1168
FA	-1169
관은	-1170
▁23	-1171
▁크게	-1172
서를	-1173
트가	-1174
▁2002	-1175
▁떨	-1176
심을	-1177
▁of	-1178
▁그룹	-1179
전히	-1180
▁있을	-1181
▁달러	-1182
년까지	-1183
▁폴란드	-1184
▁실패	-1185
세가	-1186
▁어머니	-1187
금을	-1188
이를	-1189
단의	-1190
▁거의	-1191
▁될	-1192
장으로	-1193
스로	-1194
▁생활	-1195
▁연합	-1196
▁지휘	-1197
▁붙	-1198
주는	-1199
▁이유는	-1200
이었던	-1201
▁플레이	-1202
▁27	-1203
il	-1204
갔다	-1205
됐다	-1206
어로	-1207
▁하는가	-1208
▁능	-1209
드를	-1210
▁특별	-1211
▁엄	-1212
▁팬	-1213
군을	-1214
오는	-1215
소를	-1216
자들이	-1217
et	-1218
부를	-1219
진실	-1220
▁그가	-1221
들에	-1222
▁박정희	-1223
-1	-1224
▁지도	-1225
▁시리즈	-1226
▁엘	-1227
▁하여	-1228
이어	-1229
▁사고	-1230
▁아닌	-1231
▁이동	-1232
▁사람의	-1233
▁언급	-1234
▁진출	-1235
▁기독교	-1236
▁2000	-1237
▁다양한	-1238
▁훈	-1239
었던	-1240
했지만	-1241
이의	-1242
▁설명	-1243
▁추가	-1244
▁솔	-1245
km	-1246
전에	-1247
호를	-1248
▁사상	-1249
▁확인	-1250
적을	-1251
화국	-1252
▁실시	-1253
당은	-1254
▁퇴	-1255
▁28	-1256
▁50	-1257
▁제기	-1258
▁혐	-1259
▁도입	-1260
▁조지	-1261
BC	-1262
▁26	-1263
▁있었던	-1264
▁일본의	-1265
식이	-1266
▁그리스	-1267
om	-1268
▁교황	-1269
▁대중	-1270
▁시작한	-1271
▁하지	-1272
▁증가	-1273
했는데	-1274
▁타이틀	-1275
▁녹	-1276
냈다	-1277
안을	-1278
했을	-1279
▁위원	-1280
(1	-1281
▁둘	-1282
지고	-1283
▁헌법	-1284
am	-1285
촬영	-1286
장에서	-1287
회에서	-1288
자인	-1289
▁경기에서	-1290
정한	-1291
▁보내	-1292
▁지역은	-1293
위로	-1294
▁브라	-1295
us	-1296
사로	-1297
하였나	-1298
ch	-1299
▁바이	-1300
▁동시에	-1301
▁가족	-1302
▁해당	-1303
▁승리	-1304
▁너	-1305
드가	-1306
▁생산	-1307
▁옮	-1308
했나	-1309
▁먼	-1310
아가	-1311
▁정보	-1312
▁누구의	-1313
부는	-1314
회가	-1315
회는	-1316
ad	-1317
▁뛰	-1318
▁건설	-1319
하는데	-1320
▁있고	-1321
▁활동을	-1322
▁0	-1323
▁긴	-1324
자들은	-1325
▁이탈리아	-1326
▁착	-1327
개월	-1328
▁논란	-1329
▁아우	-1330
▁자연	-1331
▁컴	-1332
드리	-1333
▁발표한	-1334
▁부르	-1335
▁선언	-1336
▁마이	-1337
▁제국	-1338
▁촬영	-1339
▁웨	-1340
▁가수	-1341
▁일어난	-1342
▁크리스	-1343
운데	-1344
▁부산	-1345
▁부족	-1346
있는	-1347
식은	-1348
▁없이	-1349
단을	-1350
▁밴	-1351
▁스페	-1352
▁행동	-1353
으로는	-1354
▁~	-1355
▁바로	-1356
▁견	-1357
▁풍	-1358
화가	-1359
▁서로	-1360
▁제시	-1361
▁최진실	-1362
▁쓴	-1363
▁전국	-1364
▁색	-1365
▁개의	-1366
▁배치	-1367
▁시절	-1368
▁조약	-1369
▁자신이	-1370
하기로	-1371
는다	-1372
사우	-1373
▁기존	-1374
▁드러	-1375
▁우리	-1376
▁임명	-1377
▁초기	-1378
한다는	-1379
했으나	-1380
▁이름을	-1381
▁잉	-1382
사에	-1383
세를	-1384
▁형성	-1385
▁29	-1386
▁충돌	-1387
▁무엇으로	-1388
정은	-1389
▁환경	-1390
▁무엇이라고	-1391
▁불구	-1392
▁차트	-1393
단은	-1394
▁명칭	-1395
▁각각	-1396
▁무엇이	-1397
▁장기	-1398
▁최초의	-1399
10	-1400
리트	-1401
▁요청	-1402
▁나카모	-1403
감을	-1404
르게	-1405
▁소설	-1406
▁V	-1407
루스	-1408
▁전두	-1409
▁옥	-1410
▁개인	-1411
▁비슷	-1412
▁맺	-1413
리와	-1414
리지	-1415
정이	-1416
▁적용	-1417
▁망	-1418
▁기능	-1419
▁어린	-1420
▁만슈타	-1421
구를	-1422
▁지금	-1423
위가	-1424
▁선발	-1425
▁최종	-1426
▁인터넷	-1427
메이	-1428
으면	-1429
▁이끌	-1430
경기	-1431
▁옹	-1432
▁결승	-1433
▁항공	-1434
▁흥	-1435
물을	-1436
체의	-1437
한다고	-1438
▁문재인	-1439
▁낮	-1440
▁추진	-1441
▁연도는	-1442
성과	-1443
▁소녀	-1444
▁올랐	-1445
▁움	-1446
단이	-1447
▁시작했다	-1448
▁흑	-1449
▁더욱	-1450
체가	-1451
▁지나	-1452
▁민족	-1453
▁의원	-1454
▁가운데	-1455
▁시티	-1456
▁트레이	-1457
▁놓	-1458
▁늘	-1459
▁졸	-1460
▁사업	-1461
▁주장한	-1462
▁펼	-1463
▁남아	-1464
▁보호	-1465
▁신문	-1466
▁없었다	-1467
리그	-1468
.1	-1469
▁이해	-1470
▁전문	-1471
▁중요한	-1472
▁건륭	-1473
▁과거	-1474
부가	-1475
스크	-1476
연구	-1477
▁국내	-1478
▁아키	-1479
▁했던	-1480
부에	-1481
움을	-1482
▁제공	-1483
당이	-1484
▁동맹	-1485
▁the	-1486
▁제외	-1487
되었으며	-1488
었는가	-1489
▁출연한	-1490
▁연속	-1491
▁이런	-1492
▁이유로	-1493
▁전두환	-1494
▁궁	-1495
▁울	-1496
어가	-1497
트로	-1498
▁명의	-1499
▁변경	-1500
▁움직	-1501
▁돈	-1502
▁그것	-1503
▁나온	-1504
▁명령	-1505
▁유일	-1506
▁현대	-1507
가의	-1508
▁가까	-1509
▁그런	-1510
▁반응	-1511
▁선택	-1512
▁올라	-1513
▁칭	-1514
라도	-1515
▁좋은	-1516
▁지적	-1517
▁파견	-1518
하도록	-1519
▁사이에	-1520
▁황제	-1521
불어	-1522
▁달리	-1523
▁작업	-1524
했다는	-1525
▁불구하고	-1526
레일	-1527
식으로	-1528
▁기원전	-1529
ac	-1530
▁징	-1531
렇게	-1532
케이	-1533
▁내려	-1534
▁최대	-1535
▁끌	-1536
동차	-1537
사와	-1538
▁후에	-1539
▁획	-1540
학적	-1541
▁빈	-1542
ir	-1543
▁응	-1544
▁혹	-1545
비를	-1546
진을	-1547
지역	-1548
▁40	-1549
▁거부	-1550
체는	-1551
▁받고	-1552
▁어떠	-1553
전이	-1554
학과	-1555
200	-1556
▁스위	-1557
▁The	-1558
▁더불어	-1559
▁싶	-1560
성에	-1561
인민	-1562
▁강조	-1563
▁대선	-1564
▁찾아	-1565
세는	-1566
as	-1567
밖에	-1568
회에	-1569
▁검찰	-1570
▁것에	-1571
▁목표	-1572
▁정신	-1573
메달	-1574
▁정권	-1575
▁믿	-1576
교육	-1577
일까	-1578
▁강화	-1579
ay	-1580
르트	-1581
▁기업	-1582
▁실험	-1583
▁작은	-1584
겠다고	-1585
였는가	-1586
▁동계	-1587
▁이상의	-1588
키는	-1589
▁개혁	-1590
구의	-1591
상이	-1592
체를	-1593
▁고대	-1594
▁관리	-1595
▁밝혀	-1596
▁출판	-1597
수로	-1598
쳤다	-1599
▁아르	-1600
▁지배	-1601
▁최고의	-1602
▁1990	-1603
년의	-1604
▁비교	-1605
▁전에	-1606
▁딸	-1607
러의	-1608
원에	-1609
▁아들	-1610
▁예술	-1611
▁통일	-1612
되었나	-1613
▁있는데	-1614
▁앤	-1615
만에	-1616
시켜	-1617
▁기념	-1618
하였으나	-1619
▁낙	-1620
▁광주	-1621
▁규모	-1622
▁동물	-1623
▁방영	-1624
▁산업	-1625
▁어떠한	-1626
50	-1627
성한	-1628
중에	-1629
학생	-1630
▁외교	-1631
르의	-1632
▁만나	-1633
▁사랑	-1634
▁제안	-1635
▁탐	-1636
▁분야	-1637
▁지속	-1638
▁평화	-1639
이티	-1640
▁혁명	-1641
▁청나라	-1642
ur	-1643
가지	-1644
사한	-1645
세의	-1646
▁FI	-1647
▁보도	-1648
▁비트	-1649
▁연결	-1650
▁연방	-1651
▁이때	-1652
▁흔	-1653
무를	-1654
스턴	-1655
and	-1656
▁수행	-1657
▁시대	-1658
레일리아	-1659
▁보인	-1660
▁하였는가	-1661
▁득	-1662
리오	-1663
치가	-1664
▁몇년	-1665
▁블랙	-1666
▁기본	-1667
▁189	-1668
▁때문이다	-1669
관이	-1670
호는	-1671
▁그를	-1672
▁졸업	-1673
▁어디에	-1674
▁콜	-1675
위의	-1676
원으로	-1677
▁윌	-1678
▁야구	-1679
▁유전	-1680
▁출시	-1681
소가	-1682
적은	-1683
▁지진	-1684
시켰다	-1685
고를	-1686
스템	-1687
일은	-1688
▁유대	-1689
▁평균	-1690
되면서	-1691
▁한다고	-1692
▁2001	-1693
▁2018	-1694
▁기자	-1695
▁이들은	-1696
.5	-1697
▁염	-1698
톨릭	-1699
▁스테	-1700
▁외국	-1701
▁재판	-1702
▁분석	-1703
쪽으로	-1704
▁개념	-1705
▁금지	-1706
▁시도	-1707
▁영화는	-1708
센터	-1709
았던	-1710
▁담당	-1711
▁부정	-1712
▁영어	-1713
▁혐의	-1714
▁FIFA	-1715
▁갑	-1716
구스	-1717
역을	-1718
▁31	-1719
▁김규	-1720
▁모델	-1721
▁의한	-1722
▁전통	-1723
▁점령	-1724
글랜드	-1725
▁잃	-1726
소의	-1727
▁동일	-1728
▁발언	-1729
▁상대로	-1730
▁정부가	-1731
▁과정에서	-1732
구는	-1733
약을	-1734
인과	-1735
▁도착	-1736
▁표면	-1737
▁영국의	-1738
..	-1739
정에	-1740
행을	-1741
▁강력	-1742
▁의견	-1743
▁장면	-1744
▁아시아	-1745
문에	-1746
진다	-1747
▁에피	-1748
▁뇌	-1749
▁수용	-1750
▁겨	-1751
자와	-1752
▁물질	-1753
▁어려	-1754
▁기록한	-1755
계의	-1756
려고	-1757
▁마르	-1758
▁먼저	-1759
▁불가	-1760
▁세력	-1761
▁수록	-1762
▁이와	-1763
▁해결	-1764
▁인터뷰	-1765
ig	-1766
▁두고	-1767
▁컨	-1768
운드	-1769
▁어떻	-1770
과를	-1771
나가	-1772
러는	-1773
만을	-1774
정책	-1775
▁지시	-1776
▁Y	-1777
▁m	-1778
과는	-1779
보드	-1780
선이	-1781
▁남북	-1782
▁말한	-1783
▁보이	-1784
프리카	-1785
▁오스트레일리아	-1786
▁풀	-1787
월에는	-1788
▁따라서	-1789
▁잉글랜드	-1790
마다	-1791
치의	-1792
▁이사	-1793
▁파괴	-1794
▁획득	-1795
▁않는다	-1796
▁이것은	-1797
▁슬	-1798
▁육군	-1799
▁통합	-1800
▁왜	-1801
리로	-1802
선의	-1803
▁국정	-1804
▁체결	-1805
▁붕	-1806
▁헬	-1807
과학	-1808
적이	-1809
▁경쟁	-1810
▁그래	-1811
▁되고	-1812
▁반란	-1813
▁아래	-1814
▁유엔	-1815
당을	-1816
▁뛰어	-1817
▁오른	-1818
▁하며	-1819
▁어디에서	-1820
).	-1821
▁샤	-1822
▁익	-1823
▁국회의	-1824
ed	-1825
받은	-1826
▁어떻게	-1827
▁1980	-1828
ro	-1829
▁임시	-1830
▁치료	-1831
▁궤	-1832
미터	-1833
▁수준	-1834
▁팀은	-1835
▁헤이	-1836
id	-1837
▁런	-1838
▁벨	-1839
나의	-1840
라스	-1841
▁누가	-1842
▁떨어	-1843
▁지급	-1844
▁지하	-1845
▁곧	-1846
▁스피	-1847
▁우주	-1848
▁이르	-1849
▁집단	-1850
리에서	-1851
▁정부는	-1852
▁잭	-1853
기와	-1854
릭터	-1855
선은	-1856
▁에피소	-1857
라의	-1858
만이	-1859
▁만에	-1860
▁일어나	-1861
▁괴	-1862
▁대통령은	-1863
▁방어	-1864
원에서	-1865
▁대통령의	-1866
문화	-1867
▁걸쳐	-1868
▁후반	-1869
.2	-1870
ut	-1871
▁d	-1872
관을	-1873
▁원래	-1874
▁가톨릭	-1875
▁정부의	-1876
▁프로젝	-1877
▁사람들이	-1878
관의	-1879
드로	-1880
없이	-1881
ent	-1882
▁공산	-1883
▁소개	-1884
▁있게	-1885
사에서	-1886
하다고	-1887
▁십	-1888
▁휘	-1889
▁경험	-1890
▁작전	-1891
▁친구	-1892
인들이	-1893
▁변화	-1894
▁준비	-1895
하였는데	-1896
▁닥	-1897
설을	-1898
연합	-1899
▁인도	-1900
일이	-1901
▁개체	-1902
▁사라	-1903
▁취임	-1904
▁고등학교	-1905
워드	-1906
종의	-1907
▁개봉	-1908
▁너무	-1909
▁비난	-1910
일을	-1911
▁물리	-1912
▁타임	-1913
▁비롯한	-1914
ve	-1915
나다	-1916
우는	-1917
▁패배	-1918
체스터	-1919
되기	-1920
류의	-1921
이드	-1922
정의	-1923
하이	-1924
▁체포	-1925
▁사실을	-1926
▁정치적	-1927
▁캐릭터	-1928
리어	-1929
리타	-1930
직을	-1931
입니까	-1932
되었던	-1933
▁장소는	-1934
지와	-1935
켓몬	-1936
학의	-1937
▁기반	-1938
▁예정	-1939
하거나	-1940
▁참여한	-1941
▁국가대표	-1942
▁s	-1943
▁넣	-1944
시키는	-1945
인으로	-1946
학을	-1947
▁로스	-1948
▁비해	-1949
로가	-1950
캠퍼	-1951
▁선고	-1952
▁지난	-1953
▁오스트리아	-1954
▁훌	-1955
▁흐	-1956
일의	-1957
텔레	-1958
▁마음	-1959
▁작곡	-1960
▁특징	-1961
▁밤	-1962
상은	-1963
▁말을	-1964
▁세월	-1965
▁신경	-1966
▁실제	-1967
▁주변	-1968
▁해석	-1969
습니까	-1970
▁사람이	-1971
국은	-1972
들도	-1973
▁근거	-1974
▁주도	-1975
메리카	-1976
▁사망한	-1977
▁무엇이라	-1978
계에	-1979
함으로써	-1980
▁의혹	-1981
▁있도록	-1982
un	-1983
조의	-1984
치고	-1985
▁오늘	-1986
▁데이비	-1987
▁나카모리	-1988
▁-	-1989
▁촉	-1990
상에	-1991
진은	-1992
▁못한	-1993
▁불리	-1994
▁대해서	-1995
프로	-1996
▁거두	-1997
▁베컴	-1998
신을	-1999
어서	-2000
▁갖고	-2001
▁모양	-2002
▁시청	-2003
▁의사	-2004
▁청와	-2005
▁모습을	-2006
▁문제가	-2007
▁중심으로	-2008
▁찬	-2009
월부터	-2010
▁기록했다	-2011
로의	-2012
지게	-2013
학년	-2014
▁변호	-2015
▁세포	-2016
▁그들의	-2017
im	-2018
▁땅	-2019
▁펜	-2020
량을	-2021
사회	-2022
▁복귀	-2023
▁않아	-2024
▁이명	-2025
▁1997	-2026
▁대통령이	-2027
▁아우구스	-2028
um	-2029
아의	-2030
영이	-2031
▁대전	-2032
▁사드	-2033
▁못했다	-2034
▁비디오	-2035
▁시스템	-2036
국이	-2037
년간	-2038
법을	-2039
식의	-2040
지지	-2041
▁대응	-2042
▁위협	-2043
▁한반	-2044
▁발생한	-2045
▁깨	-2046
▁명예	-2047
▁적극	-2048
▁토론	-2049
▁사건은	-2050
▁주장했다	-2051
내는	-2052
인공	-2053
진의	-2054
형을	-2055
▁가져	-2056
▁말은	-2057
▁선보	-2058
공화국	-2059
비디오	-2060
일부터	-2061
18	-2062
라며	-2063
▁시행	-2064
▁되었는가	-2065
▁대한민국의	-2066
베르	-2067
어의	-2068
▁스튜	-2069
▁열차	-2070
▁자주	-2071
▁관심을	-2072
.”	-2073
▁탑	-2074
구가	-2075
▁곡은	-2076
▁여기	-2077
▁통과	-2078
▁혹은	-2079
▁되었고	-2080
▁완전히	-2081
▁본격	-2082
▁역을	-2083
▁이로	-2084
▁이번	-2085
하지만	-2086
▁188	-2087
▁1999	-2088
60	-2089
ot	-2090
▁케플	-2091
▁캐나다	-2092
▁노력	-2093
▁보통	-2094
▁스카	-2095
▁문제를	-2096
▁지역의	-2097
-2	-2098
것은	-2099
▁등에	-2100
▁불렀	-2101
▁연주	-2102
▁이집	-2103
었으며	-2104
▁국민의	-2105
▁이야기	-2106
▁했는가	-2107
▁겪	-2108
▁깊	-2109
▁폰	-2110
정보	-2111
▁런던	-2112
▁아무	-2113
▁에이	-2114
▁차례	-2115
▁판결	-2116
자들의	-2117
▁위해서	-2118
30	-2119
▁넓	-2120
동을	-2121
보름	-2122
▁건물	-2123
▁방향	-2124
▁전달	-2125
▁그녀는	-2126
▁중국의	-2127
▁빅	-2128
▁참석	-2129
규모	-2130
수한	-2131
피언	-2132
▁위험	-2133
▁아버지	-2134
▁있어서	-2135
▁프랑스는	-2136
먼트	-2137
사단	-2138
화의	-2139
▁거쳐	-2140
▁상징	-2141
▁합의	-2142
러가	-2143
스에	-2144
터테	-2145
▁도쿄	-2146
▁살해	-2147
▁김보름	-2148
▁비슷한	-2149
▁선수는	-2150
▁잔	-2151
계가	-2152
시마	-2153
장과	-2154
▁만주	-2155
▁분류	-2156
▁아직	-2157
▁최근	-2158
ag	-2159
대와	-2160
즈의	-2161
The	-2162
▁교통	-2163
▁세운	-2164
▁전략	-2165
▁제도	-2166
▁감독은	-2167
▁스스로	-2168
TV	-2169
정치	-2170
▁인사	-2171
▁하기	-2172
▁뮤직비디오	-2173
방송	-2174
찌르	-2175
▁1,	-2176
▁나폴	-2177
▁보수	-2178
▁랭	-2179
량의	-2180
▁국무	-2181
▁훈련	-2182
12	-2183
정된	-2184
▁구속	-2185
▁나오	-2186
▁안산	-2187
▁제한	-2188
겠다는	-2189
스에서	-2190
▁무엇에	-2191
▁없다고	-2192
▁1950	-2193
▁앙	-2194
군에	-2195
▁바다	-2196
▁자료	-2197
상으로	-2198
▁미국에서	-2199
론을	-2200
뱅크	-2201
버트	-2202
▁남자	-2203
▁홍콩	-2204
▁c	-2205
▁삶	-2206
실을	-2207
전의	-2208
해의	-2209
▁가르	-2210
▁알렉	-2211
▁클럽	-2212
습니다	-2213
사건	-2214
ies	-2215
▁관측	-2216
▁기타	-2217
덜란드	-2218
선에서	-2219
터테인	-2220
▁맨체스터	-2221
ow	-2222
▁액	-2223
노동	-2224
▁김연	-2225
▁중에	-2226
▁콘서	-2227
▁투표	-2228
▁판단	-2229
드리히	-2230
챔피언	-2231
▁받아들	-2232
▁납	-2233
▁듣	-2234
▁몽	-2235
▁씨	-2236
▁건축	-2237
▁스톤	-2238
▁영역	-2239
▁대부분의	-2240
인데	-2241
ver	-2242
▁노르	-2243
▁노예	-2244
▁닥터	-2245
▁이승	-2246
▁직업	-2247
▁책임	-2248
▁해달	-2249
▁불리는	-2250
▁세월호	-2251
비전	-2252
▁권한	-2253
▁안철	-2254
▁유로	-2255
▁인민	-2256
▁사용한	-2257
.3	-2258
니는	-2259
사령	-2260
▁선출	-2261
▁것인가	-2262
▁독일의	-2263
▁던	-2264
리포	-2265
▁교수	-2266
▁아마	-2267
▁조성	-2268
▁직후	-2269
▁활약	-2270
▁것이었다	-2271
도시	-2272
트리	-2273
▁메이	-2274
▁미사	-2275
▁민간	-2276
▁발달	-2277
▁히틀	-2278
▁기록을	-2279
▁포함한	-2280
▁덕	-2281
량이	-2282
▁부여	-2283
▁불러	-2284
▁대하여	-2285
▁등으로	-2286
▁꾸	-2287
》,	-2288
스테	-2289
▁날은	-2290
▁보다	-2291
▁불법	-2292
▁상당	-2293
▁영토	-2294
▁축구	-2295
▁필요한	-2296
▁대표적인	-2297
▁끼	-2298
겠다	-2299
로를	-2300
파의	-2301
▁약속	-2302
▁예상	-2303
▁종합	-2304
▁챔피언	-2305
▁한나라	-2306
▁1995	-2307
▁아우구스투	-2308
▁쉽	-2309
▁캘	-2310
군과	-2311
▁확보	-2312
되는가	-2313
▁사람들은	-2314
▁사회주의	-2315
▁얼마인가	-2316
▁프랑스의	-2317
os	-2318
가가	-2319
▁시기	-2320
▁전기	-2321
▁행정	-2322
▁그들은	-2323
▁포켓몬	-2324
▁한국의	-2325
▁1996	-2326
▁안정	-2327
▁이적	-2328
▁천문	-2329
인들은	-2330
▁명칭은	-2331
▁있지만	-2332
전쟁	-2333
주가	-2334
포츠	-2335
▁60	-2336
▁논문	-2337
▁관련된	-2338
▁사이의	-2339
▁알려진	-2340
▁1998	-2341
▁습	-2342
겼다	-2343
프트	-2344
함을	-2345
▁나치	-2346
▁당선	-2347
관으로	-2348
▁184	-2349
▁갤	-2350
가를	-2351
스카	-2352
스키	-2353
▁넘어	-2354
▁대체	-2355
▁따른	-2356
▁벤허	-2357
▁인디	-2358
▁추측	-2359
▁MBC	-2360
어나	-2361
종이	-2362
▁나이	-2363
▁일을	-2364
지에서	-2365
▁승리를	-2366
▁이명박	-2367
▁1960	-2368
▁맹	-2369
▁벗	-2370
비에	-2371
▁수립	-2372
▁입학	-2373
▁홈런	-2374
▁인기를	-2375
▁프리드리히	-2376
▁숨	-2377
들로	-2378
▁광고	-2379
▁나머	-2380
▁살아	-2381
▁에너	-2382
▁1988	-2383
▁사용하는	-2384
ter	-2385
▁기초	-2386
▁접근	-2387
▁추정	-2388
적이고	-2389
찌르레	-2390
.)	-2391
ce	-2392
▁억	-2393
율은	-2394
종은	-2395
▁규정	-2396
▁밝힌	-2397
▁야마	-2398
▁자살	-2399
▁정당	-2400
▁공격을	-2401
▁빌보드	-2402
17	-2403
린다	-2404
만의	-2405
▁요한	-2406
▁중단	-2407
▁공연을	-2408
▁위치한	-2409
▁정도로	-2410
▁빛	-2411
기술	-2412
력은	-2413
▁70	-2414
▁정상	-2415
▁페르	-2416
명으로	-2417
▁태어난	-2418
od	-2419
러스	-2420
점은	-2421
▁회의	-2422
일랜드	-2423
▁위하여	-2424
▁수사	-2425
▁아내	-2426
▁제주	-2427
하다는	-2428
▁겸	-2429
▁웹	-2430
공항	-2431
라인	-2432
량은	-2433
전은	-2434
▁근대	-2435
▁김영	-2436
▁대구	-2437
▁성장	-2438
▁얼굴	-2439
▁연예	-2440
으면서	-2441
▁이렇게	-2442
▁1970	-2443
op	-2444
경제	-2445
고래	-2446
시가	-2447
웠다	-2448
▁레코	-2449
▁비행	-2450
▁오래	-2451
▁옹정	-2452
▁소녀시	-2453
▁유명한	-2454
▁있었고	-2455
▁네덜란드	-2456
▁답	-2457
▁쌍	-2458
널리	-2459
바이	-2460
소에	-2461
점이	-2462
조는	-2463
▁달성	-2464
▁유명	-2465
▁좋아	-2466
하고자	-2467
▁일으킨	-2468
▁대해서는	-2469
국을	-2470
조를	-2471
평양	-2472
▁강제	-2473
▁교회	-2474
▁떠나	-2475
▁안에	-2476
▁이민	-2477
▁행성	-2478
▁희생	-2479
자들을	-2480
▁주인공	-2481
▁빨	-2482
비가	-2483
▁내부	-2484
▁사령	-2485
▁않을	-2486
▁옥타	-2487
겐슈타	-2488
▁시작된	-2489
ation	-2490
해를	-2491
▁바뀌	-2492
▁시험	-2493
▁하루	-2494
▁활용	-2495
민주주의	-2496
▁데이비드	-2497
▁굴	-2498
▁푸	-2499
롯데	-2500
▁38	-2501
▁St	-2502
▁부른	-2503
▁신화	-2504
▁전차	-2505
하려고	-2506
▁계약을	-2507
▁놀	-2508
▁멀	-2509
▁뽑	-2510
▁흡	-2511
도와	-2512
비스	-2513
▁비틀	-2514
▁소유	-2515
▁해외	-2516
▁사건을	-2517
▁썼	-2518
단체	-2519
호가	-2520
▁보유	-2521
▁부터	-2522
▁운행	-2523
▁한다는	-2524
▁이루어진	-2525
16	-2526
ct	-2527
▁척	-2528
슬람	-2529
▁국방	-2530
▁신인	-2531
▁전자	-2532
▁주는	-2533
▁들어가	-2534
▁민주당	-2535
▁브리트	-2536
초등학교	-2537
▁비트겐슈타	-2538
▁낳	-2539
▁컬	-2540
마귀	-2541
선거	-2542
▁알고	-2543
▁이외	-2544
▁일이	-2545
▁보인다	-2546
영화	-2547
▁아카	-2548
▁특정	-2549
▁팀의	-2550
▁민주화	-2551
▁오늘날	-2552
▁아프리카	-2553
11	-2554
▁f	-2555
▁만난	-2556
▁선교	-2557
▁원더	-2558
▁가능한	-2559
▁나타나	-2560
▁사건이	-2561
▁TV	-2562
▁간의	-2563
▁다이	-2564
▁롯데	-2565
▁수가	-2566
▁오후	-2567
▁윤잉	-2568
▁이은	-2569
▁주민	-2570
▁집중	-2571
▁이슬람	-2572
▁쌓	-2573
▁엠	-2574
▁융	-2575
국가	-2576
시의	-2577
우리	-2578
▁가리	-2579
▁대륙	-2580
▁보낸	-2581
▁오스	-2582
▁인한	-2583
시키고	-2584
ne	-2585
경찰	-2586
되며	-2587
산을	-2588
선에	-2589
스코	-2590
시를	-2591
았고	-2592
한국	-2593
▁강한	-2594
▁구분	-2595
▁이주	-2596
▁조작	-2597
보다는	-2598
으므로	-2599
였고	-2600
▁법률	-2601
▁생물	-2602
▁윌리	-2603
▁폭발	-2604
상에서	-2605
었는데	-2606
▁국가는	-2607
▁의하면	-2608
안이	-2609
했기	-2610
▁거주	-2611
▁기관	-2612
▁늑대	-2613
▁바탕	-2614
▁제거	-2615
▁히로	-2616
까마귀	-2617
▁KBS	-2618
▁스페인	-2619
▁균	-2620
▁멸	-2621
롭게	-2622
문의	-2623
▁반면	-2624
▁벌어	-2625
▁여겨	-2626
▁제출	-2627
계에서	-2628
이기도	-2629
▁누구를	-2630
▁자동차	-2631
앨범	-2632
▁갈등	-2633
▁마련	-2634
▁사태	-2635
▁식민	-2636
▁중화	-2637
하였던	-2638
▁그녀의	-2639
▁논란이	-2640
▁때까지	-2641
ul	-2642
재가	-2643
화된	-2644
▁공간	-2645
▁관심	-2646
▁비용	-2647
▁상호	-2648
▁언어	-2649
▁작용	-2650
▁저항	-2651
▁주의	-2652
▁그대로	-2653
▁1994	-2654
ie	-2655
족의	-2656
주를	-2657
▁정확	-2658
▁죽은	-2659
▁증거	-2660
▁허용	-2661
메달을	-2662
점으로	-2663
▁낸	-2664
보를	-2665
였나	-2666
졌고	-2667
▁나가	-2668
▁동원	-2669
▁받는	-2670
▁유니	-2671
▁숫	-2672
▁칠	-2673
로스	-2674
르가	-2675
▁근처	-2676
▁암살	-2677
▁철도	-2678
▁초대	-2679
▁필리	-2680
▁효과	-2681
▁가까운	-2682
▁알려져	-2683
▁유일한	-2684
▁이집트	-2685
▁제대로	-2686
▁일본에서	-2687
지방	-2688
▁80	-2689
▁공화	-2690
▁마을	-2691
▁미니	-2692
▁여론	-2693
▁합류	-2694
▁강력한	-2695
▁부르는	-2696
▁올랐다	-2697
▁트레이드	-2698
▁짧	-2699
그룹	-2700
질을	-2701
해진	-2702
▁가입	-2703
▁녹음	-2704
▁발행	-2705
▁500	-2706
▁1992	-2707
▁술	-2708
경을	-2709
사이	-2710
토니	-2711
...	-2712
▁것도	-2713
▁범죄	-2714
▁유나	-2715
▁진보	-2716
▁무엇의	-2717
",	-2718
15	-2719
ra	-2720
퓨터	-2721
▁그림	-2722
▁널리	-2723
▁안전	-2724
▁얻은	-2725
▁이들	-2726
▁충분	-2727
▁기존의	-2728
▁찍	-2729
지도	-2730
▁동료	-2731
▁텔레	-2732
▁나오는	-2733
▁사회적	-2734
▁유나이티	-2735
메데	-2736
션을	-2737
▁관찰	-2738
▁옮겨	-2739
▁우려	-2740
▁적이	-2741
▁정의	-2742
▁캘리포	-2743
▁하면서	-2744
이센	-2745
조가	-2746
▁바꾸	-2747
▁브루	-2748
▁처리	-2749
▁티베	-2750
▁회복	-2751
이라며	-2752
▁여전히	-2753
▁일어났	-2754
▁1987	-2755
▁롤	-2756
▁죄	-2757
▁품	-2758
임스	-2759
전문	-2760
▁등록	-2761
▁미래	-2762
▁솔로	-2763
▁앞서	-2764
▁은퇴	-2765
▁종목	-2766
▁주목	-2767
▁지명	-2768
▁타율	-2769
▁경기를	-2770
▁못하고	-2771
▁작품은	-2772
▁프로듀	-2773
▁이름으로	-2774
라가	-2775
▁세이	-2776
▁우선	-2777
▁진화	-2778
▁폐지	-2779
로사우	-2780
비아누	-2781
▁발매한	-2782
▁윈	-2783
▁캠	-2784
되자	-2785
올림픽	-2786
▁나머지	-2787
▁대회에서	-2788
▁지역에서	-2789
)·	-2790
러운	-2791
소한	-2792
시는	-2793
제에	-2794
▁남부	-2795
▁스웨	-2796
▁요시	-2797
▁초반	-2798
케이팅	-2799
▁계획을	-2800
▁맡았다	-2801
▁어디로	-2802
▁무엇일까	-2803
관에	-2804
르고	-2805
문이	-2806
타를	-2807
▁각종	-2808
▁것과	-2809
▁나서	-2810
▁인천	-2811
▁잘못	-2812
▁실제로	-2813
▁1989	-2814
▁민주주의	-2815
.0	-2816
일본	-2817
크의	-2818
▁비밀	-2819
▁완성	-2820
▁종료	-2821
▁카이	-2822
었다고	-2823
▁결과를	-2824
▁하나의	-2825
ingle	-2826
▁밖	-2827
단에	-2828
로운	-2829
마가	-2830
베이	-2831
소년	-2832
안에	-2833
팀은	-2834
▁그린	-2835
▁스트	-2836
▁애니	-2837
▁오픈	-2838
▁행사	-2839
되기도	-2840
▁앨범의	-2841
▁영화의	-2842
▁컴퓨터	-2843
▁캘리포니아	-2844
▁빼	-2845
▁쪽	-2846
리자	-2847
히려	-2848
▁건강	-2849
▁쇼트	-2850
▁파이	-2851
일까지	-2852
졌는가	-2853
플레이	-2854
▁얼마나	-2855
▁입장을	-2856
oc	-2857
▁멜	-2858
▁헨	-2859
담을	-2860
많은	-2861
비는	-2862
시킬	-2863
하라	-2864
▁귀국	-2865
▁반발	-2866
▁서식	-2867
▁한미	-2868
▁SBS	-2869
▁보였다	-2870
▁앨범은	-2871
▁중에서	-2872
▁혐의로	-2873
▁누구에게	-2874
▁유럽찌르레	-2875
골을	-2876
드와	-2877
영은	-2878
재를	-2879
주교	-2880
▁맡아	-2881
▁무역	-2882
▁시위	-2883
▁이듬	-2884
▁자본	-2885
▁확대	-2886
▁당시의	-2887
▁베이징	-2888
▁보여주	-2889
▁윌리엄	-2890
40	-2891
길준	-2892
신의	-2893
▁km	-2894
▁국회	-2895
▁귀족	-2896
▁박보	-2897
▁생존	-2898
▁수입	-2899
▁여름	-2900
▁예를	-2901
▁정착	-2902
▁투입	-2903
▁발견된	-2904
adies	-2905
국민	-2906
기고	-2907
상과	-2908
식에	-2909
즈가	-2910
▁끝나	-2911
▁바람	-2912
▁질병	-2913
▁채택	-2914
월까지	-2915
하려는	-2916
▁베이비	-2917
▁유길준	-2918
▁프로이센	-2919
▁읽	-2920
두고	-2921
사업	-2922
시코	-2923
프가	-2924
▁남한	-2925
▁단순	-2926
▁디스	-2927
▁원칙	-2928
▁중력	-2929
▁트로	-2930
민주당	-2931
성으로	-2932
▁공화국	-2933
▁스포츠	-2934
▁원더걸	-2935
▁1945	-2936
▁옥타비아누	-2937
▁르	-2938
▁센	-2939
▁율	-2940
나무	-2941
서의	-2942
승을	-2943
▁35	-2944
▁거래	-2945
▁했고	-2946
간에	-2947
시대	-2948
신교	-2949
인트	-2950
▁국립	-2951
▁뿐만	-2952
▁서양	-2953
▁유리	-2954
▁전환	-2955
▁점을	-2956
▁정식	-2957
▁인간의	-2958
고등학교	-2959
13	-2960
▁홀	-2961
디어	-2962
음악	-2963
자리	-2964
▁구체	-2965
▁구축	-2966
▁내세	-2967
▁등과	-2968
▁사냥	-2969
▁이익	-2970
▁카를	-2971
▁어워드	-2972
▁평가를	-2973
▁무엇인가요	-2974
-0	-2975
자에	-2976
지털	-2977
하의	-2978
▁기획	-2979
▁다섯	-2980
▁부모	-2981
▁사는	-2982
▁십자	-2983
▁인권	-2984
음에도	-2985
▁대규모	-2986
▁곤	-2987
격이	-2988
모토	-2989
이기	-2990
조선	-2991
▁가정	-2992
▁겨울	-2993
▁공작	-2994
▁스티	-2995
▁연극	-2996
▁연장	-2997
▁있기	-2998
▁작가	-2999
▁진입	-3000
▁스웨덴	-3001
▁하나로	-3002
▁1991	-3003
▁가능성이	-3004
▁스튜디오	-3005
▁p	-3006
▁섭	-3007
니의	-3008
원과	-3009
웨이	-3010
이던	-3011
일보	-3012
art	-3013
▁경향	-3014
▁부문	-3015
▁발견한	-3016
▁북한의	-3017
▁만들어진	-3018
70	-3019
NA	-3020
oy	-3021
▁l	-3022
▁팝	-3023
생활	-3024
후의	-3025
(19	-3026
▁결합	-3027
▁물론	-3028
▁분리	-3029
▁측면	-3030
▁탈출	-3031
▁186	-3032
▁지역에	-3033
제와	-3034
피아	-3035
▁거절	-3036
▁근무	-3037
▁기여	-3038
▁동아	-3039
▁문학	-3040
▁불과	-3041
▁수출	-3042
▁채널	-3043
▁통치	-3044
▁하게	-3045
▁확장	-3046
되었는데	-3047
▁타이틀곡	-3048
인민공화국	-3049
▁뭐	-3050
▁족	-3051
인에	-3052
있다	-3053
▁끝에	-3054
▁당한	-3055
▁묘사	-3056
▁알아	-3057
▁에드	-3058
▁조정	-3059
▁케이	-3060
▁핵심	-3061
▁관계를	-3062
▁만드는	-3063
▁속에서	-3064
▁류	-3065
성애	-3066
신이	-3067
일러	-3068
▁LG	-3069
▁개정	-3070
▁결성	-3071
▁논의	-3072
▁도중	-3073
▁위에	-3074
▁자이	-3075
▁자체	-3076
받았다	-3077
▁라디오	-3078
▁마이클	-3079
▁미국은	-3080
▁안토니	-3081
▁제임스	-3082
▁하나님	-3083
▁낭	-3084
부와	-3085
스팅	-3086
야마	-3087
ell	-3088
▁건국	-3089
▁남성	-3090
▁사례	-3091
▁역대	-3092
▁위반	-3093
▁죽음	-3094
▁포르	-3095
▁나타난	-3096
▁이듬해	-3097
▁인디언	-3098
▁정책을	-3099
▁했지만	-3100
▁대상으로	-3101
계는	-3102
라나	-3103
부로	-3104
분을	-3105
▁보면	-3106
▁부활	-3107
▁주한	-3108
▁철학	-3109
▁플라	-3110
▁나이는	-3111
▁오히려	-3112
▁우승을	-3113
▁운동을	-3114
▁의원은	-3115
▁프로젝트	-3116
▁꼬	-3117
분에	-3118
우수	-3119
자들	-3120
▁다르	-3121
▁대립	-3122
▁만큼	-3123
▁제이	-3124
부르크	-3125
▁로버트	-3126
▁블랙홀	-3127
▁아니다	-3128
▁자신을	-3129
▁베이비복	-3130
▁전투에서	-3131
▁일반적으로	-3132
▁묻	-3133
▁밥	-3134
▁혜	-3135
개를	-3136
권의	-3137
력의	-3138
리기	-3139
법은	-3140
안의	-3141
트랙	-3142
▁가는	-3143
▁국왕	-3144
▁뜻을	-3145
▁마리	-3146
▁사무	-3147
▁승부	-3148
▁전반	-3149
▁조건	-3150
▁태풍	-3151
▁디지털	-3152
▁수많은	-3153
14	-3154
▁a	-3155
▁뒷	-3156
려는	-3157
었나	-3158
키가	-3159
▁나무	-3160
▁무렵	-3161
▁서인	-3162
▁힘을	-3163
▁1993	-3164
▁알로사우	-3165
▁록	-3166
▁옛	-3167
▁핀	-3168
액은	-3169
이란	-3170
▁명이	-3171
▁전혀	-3172
▁학문	-3173
과대학	-3174
▁179	-3175
▁로리타	-3176
▁기준으로	-3177
▁젊	-3178
▁찰	-3179
다른	-3180
와는	-3181
▁붕괴	-3182
▁삼성	-3183
▁생겨	-3184
▁시각	-3185
▁인가	-3186
▁장악	-3187
▁포위	-3188
소에서	-3189
였으며	-3190
▁도움을	-3191
▁사건의	-3192
▁자리를	-3193
▁주었다	-3194
즈는	-3195
▁나는	-3196
▁반복	-3197
▁성립	-3198
▁얼음	-3199
▁이준	-3200
▁인식	-3201
▁줄어	-3202
▁패션	-3203
▁발매된	-3204
▁역사상	-3205
em	-3206
비의	-3207
석을	-3208
조사	-3209
품을	-3210
▁배경	-3211
▁생성	-3212
▁아스	-3213
▁영웅	-3214
▁예측	-3215
▁전역	-3216
▁책은	-3217
▁올해의	-3218
▁애니메이	-3219
훼손	-3220
▁김일	-3221
▁나누	-3222
▁민중	-3223
▁진압	-3224
로서의	-3225
▁쏘	-3226
▁욕	-3227
도우	-3228
물은	-3229
예술	-3230
토의	-3231
파이	-3232
▁뮤지	-3233
▁받게	-3234
▁부상	-3235
▁오르	-3236
스트로	-3237
▁개신교	-3238
▁명인가	-3239
▁방법을	-3240
▁지지를	-3241
▁엔터테인	-3242
▁링	-3243
나쓰	-3244
부아	-3245
싱턴	-3246
▁기억	-3247
▁보컬	-3248
▁출발	-3249
▁트리	-3250
▁포기	-3251
았는가	-3252
▁기간은	-3253
▁말한다	-3254
▁에피소드	-3255
▁냉	-3256
년을	-3257
류를	-3258
버그	-3259
서가	-3260
영어	-3261
트워	-3262
▁마찬	-3263
▁밴드	-3264
▁영입	-3265
▁이른	-3266
▁이재	-3267
▁전해	-3268
▁즉위	-3269
▁통제	-3270
▁내용을	-3271
▁도시는	-3272
▁마리아	-3273
▁사실이	-3274
▁스피어	-3275
▁몬	-3276
같은	-3277
금은	-3278
니가	-3279
미가	-3280
사카	-3281
우가	-3282
▁라틴	-3283
▁주교	-3284
▁출마	-3285
▁노래를	-3286
▁늑대가	-3287
▁브라질	-3288
OC	-3289
물이	-3290
산업	-3291
아는	-3292
프는	-3293
ill	-3294
▁구단	-3295
▁번역	-3296
▁수익	-3297
▁없어	-3298
▁이래	-3299
▁이혼	-3300
▁자리	-3301
멕시코	-3302
원들이	-3303
▁나라의	-3304
▁캐스팅	-3305
▁형태로	-3306
이었는가	-3307
▁아일랜드	-3308
▁있었는가	-3309
▁한나라당	-3310
80	-3311
사관	-3312
탈린	-3313
페이	-3314
▁경영	-3315
▁대기	-3316
▁되지	-3317
▁몇몇	-3318
▁무장	-3319
▁의료	-3320
▁학살	-3321
▁그래서	-3322
▁단체는	-3323
▁미국이	-3324
▁제외한	-3325
▁차지했다	-3326
▁만슈타인은	-3327
▁끊	-3328
▁왔	-3329
니스	-3330
시민	-3331
연을	-3332
쟁을	-3333
크로	-3334
500	-3335
▁돈을	-3336
▁병사	-3337
▁빌리	-3338
▁수학	-3339
▁탄생	-3340
▁특수	-3341
▁해체	-3342
도에서	-3343
▁베스트	-3344
▁피해를	-3345
▁1979	-3346
▁것이라는	-3347
.6	-3348
▁혈	-3349
공업	-3350
데미	-3351
라늄	-3352
술을	-3353
인지	-3354
▁교체	-3355
▁다루	-3356
▁다만	-3357
▁북아	-3358
▁슈퍼	-3359
▁유래	-3360
▁중반	-3361
▁해군	-3362
렸는가	-3363
인들의	-3364
▁수상한	-3365
레옹	-3366
시한	-3367
▁전개	-3368
▁점차	-3369
▁징역	-3370
▁평등	-3371
▁and	-3372
▁라부아	-3373
▁스테고	-3374
▁시기에	-3375
▁이르는	-3376
▁1986	-3377
▁만들었다	-3378
▁덴	-3379
▁둥	-3380
격한	-3381
번의	-3382
세에	-3383
시즌	-3384
쪽에	-3385
▁등은	-3386
▁이기	-3387
▁잡아	-3388
대에서	-3389
▁구성된	-3390
▁사람을	-3391
▁웨스트	-3392
▁이용한	-3393
TA	-3394
if	-3395
▁꼽	-3396
▁샘	-3397
가와	-3398
권이	-3399
다운	-3400
스럽	-3401
체질	-3402
프의	-3403
항공	-3404
est	-3405
▁감소	-3406
▁뒤에	-3407
▁본래	-3408
▁사퇴	-3409
▁예수	-3410
▁해야	-3411
세기에	-3412
자에게	-3413
하겠다고	-3414
▁목적으로	-3415
ke	-3416
▁릴	-3417
▁개선	-3418
▁글을	-3419
▁아시	-3420
▁엄청	-3421
▁저지	-3422
가지로	-3423
부에서	-3424
하다가	-3425
▁에나쓰	-3426
▁나폴레옹	-3427
▁세계에서	-3428
WE	-3429
▁딜	-3430
▁롱	-3431
▁샌	-3432
▁춤	-3433
시험	-3434
지기	-3435
▁고전	-3436
▁밝히	-3437
▁세워	-3438
▁속에	-3439
▁창조	-3440
▁탄핵	-3441
▁확실	-3442
▁확정	-3443
스크바	-3444
▁불가능	-3445
▁설립한	-3446
▁제국의	-3447
▁발표했다	-3448
ab	-3449
▁을	-3450
▁즐	-3451
권에	-3452
기관	-3453
만원	-3454
영의	-3455
조직	-3456
특별	-3457
▁내린	-3458
▁동의	-3459
▁보장	-3460
▁부인	-3461
▁성향	-3462
▁오브	-3463
격으로	-3464
▁이름이	-3465
▁주장하는	-3466
▁텔레비전	-3467
)'	-3468
▁댄	-3469
▁켈	-3470
거리	-3471
기록	-3472
더스	-3473
선수	-3474
안은	-3475
▁90	-3476
▁남편	-3477
▁라고	-3478
▁보는	-3479
▁신청	-3480
▁인종	-3481
▁전시	-3482
▁타고	-3483
▁트랙	-3484
▁국가의	-3485
▁방법은	-3486
▁번째로	-3487
▁최우수	-3488
▁튀	-3489
달러	-3490
료를	-3491
스토	-3492
엽충	-3493
유의	-3494
주로	-3495
지원	-3496
파는	-3497
하에	-3498
행한	-3499
▁끝난	-3500
▁낮은	-3501
▁브로	-3502
▁재정	-3503
▁저서	-3504
▁적은	-3505
▁최소	-3506
▁파크	-3507
▁하이	-3508
▁회사	-3509
주의자	-3510
▁전쟁을	-3511
▁「	-3512
대전	-3513
리게	-3514
움이	-3515
파가	-3516
▁곡의	-3517
▁소방	-3518
▁소송	-3519
▁쉽게	-3520
▁재산	-3521
▁출생	-3522
▁파리	-3523
스에게	-3524
트에서	-3525
▁선수권	-3526
▁스탈린	-3527
▁이론은	-3528
▁했으나	-3529
제국	-3530
평을	-3531
표를	-3532
▁Ch	-3533
▁레닌	-3534
▁법칙	-3535
▁빠른	-3536
▁상업	-3537
▁신성	-3538
▁아랍	-3539
▁오바	-3540
▁외에	-3541
▁지키	-3542
▁평론	-3543
▁폴링	-3544
▁프레	-3545
▁한번	-3546
▁협력	-3547
▁훌린	-3548
▁You	-3549
▁없다는	-3550
▁1972	-3551
▁짓	-3552
▁칸	-3553
▁훨	-3554
어야	-3555
▁계승	-3556
▁물러	-3557
▁심각	-3558
▁예산	-3559
▁원정	-3560
▁훨씬	-3561
▁185	-3562
▁누구와	-3563
▁늑대는	-3564
▁보이는	-3565
▁삼엽충	-3566
▁지역을	-3567
▁모스크바	-3568
.7	-3569
▁옷	-3570
법의	-3571
수혁	-3572
시티	-3573
청년	-3574
하나	-3575
▁계급	-3576
▁내놓	-3577
▁뱅크	-3578
▁사후	-3579
▁시장	-3580
▁증언	-3581
▁차량	-3582
▁폭력	-3583
▁홍보	-3584
▁것처럼	-3585
▁경기는	-3586
▁과정을	-3587
▁않았고	-3588
▁외에도	-3589
▁이전에	-3590
▁통하여	-3591
▁1920	-3592
▁애니메이션	-3593
.4	-3594
NE	-3595
ap	-3596
▁엑	-3597
개발	-3598
물의	-3599
스탄	-3600
스티	-3601
씨가	-3602
점에	-3603
조작	-3604
EFA	-3605
ard	-3606
▁가해	-3607
▁리처	-3608
▁밀양	-3609
▁요새	-3610
▁원로	-3611
▁원작	-3612
▁지정	-3613
▁감독의	-3614
▁멕시코	-3615
▁시간이	-3616
▁원인은	-3617
▁자이언	-3618
▁3000	-3619
▁봄	-3620
간다	-3621
년이	-3622
리우	-3623
복을	-3624
브먼	-3625
자기	-3626
전한	-3627
화는	-3628
▁다니	-3629
▁수감	-3630
▁아티	-3631
▁익스	-3632
▁젊은	-3633
▁지켜	-3634
▁경우가	-3635
▁브라운	-3636
▁솔라나	-3637
▁등장하는	-3638
▁사이에서	-3639
▁국가대표팀	-3640
▁늦	-3641
증을	-3642
혁명	-3643
▁개입	-3644
▁그렇	-3645
▁도달	-3646
▁도망	-3647
▁마사	-3648
▁어렵	-3649
▁천황	-3650
▁총독	-3651
▁탈퇴	-3652
▁해안	-3653
나라의	-3654
에게는	-3655
▁돌아가	-3656
▁지원을	-3657
▁통해서	-3658
▁인터뷰에서	-3659
▁람	-3660
▁며	-3661
▁셀	-3662
만큼	-3663
메라	-3664
분의	-3665
학은	-3666
▁FC	-3667
▁같다	-3668
▁건너	-3669
▁기울	-3670
▁김기	-3671
▁빅토	-3672
▁인구	-3673
▁자금	-3674
▁한일	-3675
▁메이저	-3676
▁직업은	-3677
▁넥	-3678
▁덧	-3679
내고	-3680
미를	-3681
서에	-3682
시오	-3683
우주	-3684
차를	-3685
통을	-3686
트에	-3687
평가	-3688
▁그레	-3689
▁단식	-3690
▁목소	-3691
▁미군	-3692
▁반영	-3693
▁보병	-3694
▁부대	-3695
▁설정	-3696
▁오랜	-3697
▁이뤄	-3698
▁작성	-3699
▁장애	-3700
▁최다	-3701
▁하계	-3702
▁하다	-3703
주의적	-3704
▁WWE	-3705
▁레이디	-3706
▁앞에서	-3707
▁이것이	-3708
▁지하철	-3709
▁터브먼	-3710
적으로는	-3711
▁강희제는	-3712
▁바탕으로	-3713
▁둔	-3714
〉,	-3715
끄는	-3716
누리	-3717
리히	-3718
중앙	-3719
카이	-3720
타르	-3721
▁FA	-3722
▁고래	-3723
▁고용	-3724
▁머물	-3725
▁바르	-3726
▁베르	-3727
▁스토	-3728
▁신한	-3729
▁지닌	-3730
▁테러	-3731
▁형제	-3732
▁문제로	-3733
▁태양의	-3734
▁회사는	-3735
▁1976	-3736
▁1985	-3737
▁이야기를	-3738
▁마지막으로	-3739
ia	-3740
▁핫	-3741
소로	-3742
수록	-3743
율을	-3744
코가	-3745
▁45	-3746
▁단일	-3747
▁돌파	-3748
▁받지	-3749
▁오리	-3750
▁원주	-3751
▁창설	-3752
▁해서	-3753
▁워싱턴	-3754
▁장기하	-3755
▁UEFA	-3756
'(	-3757
25	-3758
og	-3759
▁b	-3760
당에	-3761
렀다	-3762
우의	-3763
트남	-3764
▁감염	-3765
▁도로	-3766
▁됐다	-3767
▁방출	-3768
▁변희	-3769
▁빠져	-3770
▁설계	-3771
▁설득	-3772
▁스코	-3773
▁오카	-3774
▁입장	-3775
▁플루	-3776
▁항성	-3777
▁항의	-3778
년대에	-3779
주의를	-3780
중학교	-3781
▁나왔다	-3782
▁임수혁	-3783
▁있었는데	-3784
"(	-3785
nd	-3786
▁셰	-3787
그리	-3788
설이	-3789
이로	-3790
치로	-3791
▁계산	-3792
▁기부	-3793
▁밖에	-3794
▁분위	-3795
▁사법	-3796
▁수여	-3797
▁않다	-3798
▁오디	-3799
▁왕은	-3800
▁인공	-3801
▁조용	-3802
▁이후에	-3803
▁했으며	-3804
▁차트에서	-3805
35	-3806
’(	-3807
▁쉬	-3808
류가	-3809
어져	-3810
쟁이	-3811
▁득점	-3812
▁복잡	-3813
▁생긴	-3814
▁있지	-3815
▁증명	-3816
▁트럼	-3817
▁편집	-3818
▁현실	-3819
지면서	-3820
캠퍼스	-3821
▁뛰어난	-3822
▁시간을	-3823
▁시대의	-3824
▁윈도우	-3825
▁1941	-3826
▁무엇입니까	-3827
)"	-3828
21	-3829
ob	-3830
▁써	-3831
드벤	-3832
사키	-3833
신은	-3834
여자	-3835
트라	-3836
▁개편	-3837
▁구미	-3838
▁나와	-3839
▁상륙	-3840
▁세우	-3841
▁없었	-3842
▁조각	-3843
▁조금	-3844
▁주둔	-3845
▁차별	-3846
▁투어	-3847
▁해방	-3848
점에서	-3849
▁(19	-3850
▁년도에	-3851
▁되는가	-3852
▁사실상	-3853
▁한반도	-3854
자들에게	-3855
▁경우에는	-3856
▁아카데미	-3857
▁크리스티	-3858
▁큰까마귀	-3859
▁꿈	-3860
고한	-3861
권은	-3862
느냐	-3863
류는	-3864
식과	-3865
억원	-3866
형이	-3867
힙합	-3868
▁단독	-3869
▁동생	-3870
▁디자	-3871
▁성경	-3872
▁의회	-3873
▁이휘	-3874
▁잠수	-3875
▁전인	-3876
이었나	-3877
하라고	-3878
▁그에게	-3879
▁단어는	-3880
▁동성애	-3881
▁일으켰	-3882
되었으나	-3883
▁듯	-3884
▁팽	-3885
력과	-3886
받아	-3887
연맹	-3888
프를	-3889
▁곡을	-3890
▁대비	-3891
▁되면	-3892
▁세드	-3893
▁연습	-3894
▁이효	-3895
▁혼란	-3896
▁화학	-3897
▁177	-3898
▁300	-3899
▁기관은	-3900
▁내에서	-3901
▁알렉산	-3902
▁유대인	-3903
되었다고	-3904
▁때문인가	-3905
▁있었지만	-3906
24	-3907
▁긍	-3908
▁랩	-3909
▁밑	-3910
▁컵	-3911
▁훗	-3912
동의	-3913
렸고	-3914
령을	-3915
모를	-3916
브리	-3917
트와	-3918
형은	-3919
▁34	-3920
▁기계	-3921
▁느끼	-3922
▁무기	-3923
▁새끼	-3924
▁소재	-3925
력으로	-3926
젤레스	-3927
▁반응을	-3928
▁정도의	-3929
▁출전한	-3930
▁1983	-3931
▁덮	-3932
▁쇠	-3933
단한	-3934
상대	-3935
슨은	-3936
프리	-3937
all	-3938
▁골든	-3939
▁구간	-3940
▁대변	-3941
▁랭킹	-3942
▁모아	-3943
▁올려	-3944
▁장관	-3945
졌으며	-3946
▁것이라	-3947
▁비판한	-3948
▁생활을	-3949
▁시작하였다	-3950
▁갔	-3951
▁틀	-3952
공사	-3953
를린	-3954
발전	-3955
분이	-3956
세포	-3957
수와	-3958
율이	-3959
일로	-3960
쪽의	-3961
책을	-3962
친왕	-3963
플로	-3964
화에	-3965
ack	-3966
▁가스	-3967
▁때의	-3968
▁약탈	-3969
▁인기	-3970
▁정리	-3971
▁출범	-3972
군에게	-3973
리우스	-3974
▁나중에	-3975
▁새누리	-3976
▁이용해	-3977
▁태평양	-3978
▁1982	-3979
▁위해서는	-3980
▁마찬가지로	-3981
-3	-3982
.8	-3983
ge	-3984
▁X	-3985
▁객	-3986
그라	-3987
기간	-3988
년과	-3989
촛불	-3990
치아	-3991
▁거둔	-3992
▁끌어	-3993
▁둘러	-3994
▁받을	-3995
▁발렌	-3996
▁의화	-3997
▁처벌	-3998
▁기록은	-3999
▁김정은	-4000
▁때부터	-4001
▁인하여	-4002
▁하나는	-4003
▁공식적으로	-4004
22	-4005
ri	-4006
th	-4007
▁옆	-4008
▁흘	-4009
교도	-4010
교를	-4011
메리	-4012
세이	-4013
화로	-4014
▁Th	-4015
▁가즈	-4016
▁그려	-4017
▁대공	-4018
▁루이	-4019
▁분열	-4020
▁생명	-4021
▁센터	-4022
▁아덴	-4023
▁이시	-4024
▁컴백	-4025
▁항소	-4026
되었을	-4027
베르크	-4028
▁군대를	-4029
▁선수가	-4030
▁있으나	-4031
▁조지아	-4032
▁1000	-4033
▁1946	-4034
',	-4035
▁흰	-4036
당과	-4037
로로	-4038
받고	-4039
법에	-4040
크는	-4041
igh	-4042
▁근로	-4043
▁박사	-4044
▁발발	-4045
▁업무	-4046
▁없고	-4047
▁오버	-4048
▁오전	-4049
▁전면	-4050
▁지상	-4051
▁타마	-4052
리스트	-4053
▁150	-4054
▁국정원	-4055
▁때에는	-4056
▁일본이	-4057
▁청와대	-4058
▁되었으며	-4059
▁Ladies	-4060
▁댓	-4061
▁멘	-4062
머스	-4063
소와	-4064
ist	-4065
▁검토	-4066
▁관객	-4067
▁긍정	-4068
▁기소	-4069
▁바그	-4070
▁베네	-4071
▁블루	-4072
▁선포	-4073
▁승인	-4074
▁아사	-4075
▁올린	-4076
▁인용	-4077
▁하면	-4078
운동을	-4079
이었고	-4080
▁과학자	-4081
▁프리스	-4082
▁하였고	-4083
▁1981	-4084
▁받았는가	-4085
▁벽	-4086
▁웃	-4087
개혁	-4088
구에	-4089
대지	-4090
론의	-4091
무부	-4092
받는	-4093
패를	-4094
항을	-4095
형의	-4096
▁게이	-4097
▁기대	-4098
▁김성	-4099
▁남은	-4100
▁내각	-4101
▁넘는	-4102
▁발사	-4103
▁원내	-4104
▁일베	-4105
▁정복	-4106
▁제조	-4107
▁청년	-4108
▁항상	-4109
▁그렇게	-4110
▁부상을	-4111
▁의해서	-4112
▁이끌고	-4113
▁포르투	-4114
▁1944	-4115
▁구성되어	-4116
계약	-4117
교회	-4118
국제	-4119
나와	-4120
리언	-4121
만명	-4122
사인	-4123
티늄	-4124
▁고문	-4125
▁대항	-4126
▁딜런	-4127
▁맞아	-4128
▁상승	-4129
▁성폭	-4130
▁왔다	-4131
▁있나	-4132
▁촛불	-4133
▁추천	-4134
▁크로	-4135
▁통한	-4136
▁투자	-4137
더라도	-4138
드에서	-4139
았으며	-4140
했나요	-4141
▁다음과	-4142
▁동일본	-4143
▁로마의	-4144
▁오스만	-4145
▁이들의	-4146
▁전쟁이	-4147
▁스카이라	-4148
▁이루어져	-4149
▁이용하여	-4150
▁있었으며	-4151
▁&	-4152
것을	-4153
니어	-4154
마이	-4155
무원	-4156
작용	-4157
차례	-4158
호의	-4159
▁가속	-4160
▁공급	-4161
▁금융	-4162
▁도서	-4163
▁동영	-4164
▁듣고	-4165
▁벌인	-4166
▁사진	-4167
▁소요	-4168
▁수표	-4169
▁연대	-4170
▁의심	-4171
▁전파	-4172
▁취소	-4173
▁후쿠	-4174
▁희망	-4175
년에서	-4176
시키기	-4177
▁교수는	-4178
▁디자인	-4179
▁북한이	-4180
▁역으로	-4181
▁우라늄	-4182
▁정보를	-4183
▁출신의	-4184
▁래	-4185
가로	-4186
계획	-4187
금의	-4188
▁In	-4189
▁간주	-4190
▁늘어	-4191
▁도전	-4192
▁동부	-4193
▁분노	-4194
▁시카	-4195
▁향해	-4196
▁힙합	-4197
단으로	-4198
이지만	-4199
▁로스앤	-4200
▁베트남	-4201
▁상황을	-4202
▁시간은	-4203
▁앞두고	-4204
▁연구를	-4205
▁이후로	-4206
▁필리핀	-4207
▁몇년도에	-4208
▁사건으로	-4209
▁본격적으로	-4210
▁잇	-4211
경이	-4212
국에	-4213
마의	-4214
우를	-4215
▁가로	-4216
▁갖추	-4217
▁네이	-4218
▁노선	-4219
▁매년	-4220
▁맺은	-4221
▁모리	-4222
▁세종	-4223
▁짧은	-4224
▁특이	-4225
▁Boy	-4226
▁되면서	-4227
▁상하이	-4228
▁스위프	-4229
▁음반의	-4230
▁국회의원	-4231
▁상황에서	-4232
▁주장하였다	-4233
▁린	-4234
▁짐	-4235
단과	-4236
보로	-4237
헬름	-4238
▁마오	-4239
▁머리	-4240
▁오프	-4241
▁입은	-4242
▁집권	-4243
▁찰스	-4244
▁해리	-4245
었으나	-4246
▁187	-4247
▁경기도	-4248
▁뮤지컬	-4249
▁시즌을	-4250
▁엄청난	-4251
▁점에서	-4252
▁있었으나	-4253
▁세계적으로	-4254
▁w	-4255
▁숭	-4256
계로	-4257
본을	-4258
아버	-4259
타의	-4260
회담	-4261
▁2,	-4262
▁가상	-4263
▁놓고	-4264
▁댓글	-4265
▁떠난	-4266
▁마쓰	-4267
▁메달	-4268
▁방해	-4269
▁수비	-4270
▁웨일	-4271
▁중간	-4272
▁지목	-4273
드벤처	-4274
▁네트워	-4275
▁라이브	-4276
▁미국과	-4277
▁배우는	-4278
▁빌헬름	-4279
▁작업을	-4280
▁책임을	-4281
▁1919	-4282
▁1984	-4283
관리	-4284
라노	-4285
즈를	-4286
처를	-4287
크라	-4288
통합	-4289
▁고향	-4290
▁리더	-4291
▁며칠	-4292
▁승격	-4293
▁여행	-4294
▁침공	-4295
▁함락	-4296
▁회원	-4297
▁후계	-4298
▁훗날	-4299
▁5.1	-4300
▁IOC	-4301
▁경기에	-4302
▁김영삼	-4303
▁떨어진	-4304
▁베를린	-4305
▁수록곡	-4306
▁차지한	-4307
▁하는데	-4308
▁했는데	-4309
27	-4310
ph	-4311
디아	-4312
랐다	-4313
력에	-4314
화한	-4315
our	-4316
▁Re	-4317
▁책을	-4318
▁칠레	-4319
▁흑인	-4320
▁180	-4321
▁것이며	-4322
▁그런데	-4323
▁않으면	-4324
▁여성의	-4325
▁전문가	-4326
▁프랑크	-4327
▁1930	-4328
▁아티스트	-4329
▁케플러는	-4330
▁뿌	-4331
나마	-4332
남도	-4333
드시	-4334
률은	-4335
률이	-4336
버스	-4337
법이	-4338
생을	-4339
서로	-4340
준다	-4341
협회	-4342
▁개시	-4343
▁공유	-4344
▁귀신	-4345
▁그에	-4346
▁높아	-4347
▁달라	-4348
▁무시	-4349
▁부임	-4350
▁에스	-4351
▁올리	-4352
▁잡지	-4353
▁절대	-4354
▁천체	-4355
스와의	-4356
▁언급한	-4357
▁이끄는	-4358
▁일으키	-4359
▁받아들여	-4360
▁자이언츠	-4361
▁프로그램은	-4362
▁까	-4363
고자	-4364
어도	-4365
있던	-4366
▁개통	-4367
▁기사	-4368
▁대형	-4369
▁비록	-4370
▁수정	-4371
▁연락	-4372
▁오토	-4373
▁유치	-4374
▁은행	-4375
▁입고	-4376
▁잠시	-4377
▁크레	-4378
▁방문한	-4379
▁시대에	-4380
▁시카고	-4381
▁쇼트트랙	-4382
▁아메리카	-4383
▁조선민주주의	-4384
se	-4385
동이	-4386
민이	-4387
씨는	-4388
ove	-4389
▁계층	-4390
▁맞이	-4391
▁융합	-4392
▁창립	-4393
▁촉구	-4394
▁출장	-4395
▁팀을	-4396
틀랜드	-4397
▁부분은	-4398
▁사용된	-4399
▁음반은	-4400
▁이승만	-4401
▁케이티	-4402
▁1973	-4403
▁김대중이	-4404
▁나타나는	-4405
▁돕	-4406
마는	-4407
마트	-4408
이에	-4409
임이	-4410
지며	-4411
카가	-4412
▁Me	-4413
▁구입	-4414
▁깊은	-4415
▁로이	-4416
▁순위	-4417
▁실질	-4418
▁알게	-4419
▁얻어	-4420
▁없을	-4421
▁철수	-4422
▁계기로	-4423
▁데뷔한	-4424
▁리처드	-4425
▁명령을	-4426
▁브랜드	-4427
▁비판을	-4428
▁오사카	-4429
▁후보로	-4430
▁강희제가	-4431
▁김보름은	-4432
▁방식으로	-4433
▁오스트레일리아까	-4434
▁좀	-4435
대회	-4436
마디	-4437
스피	-4438
유럽	-4439
질이	-4440
판을	-4441
함에	-4442
▁5·	-4443
▁공공	-4444
▁근육	-4445
▁드래	-4446
▁실현	-4447
▁위키	-4448
▁전태	-4449
▁탐사	-4450
▁파악	-4451
▁미사일	-4452
▁성적을	-4453
▁아덴하	-4454
▁의견을	-4455
▁있음을	-4456
▁정책은	-4457
▁콘서트	-4458
▁관련하여	-4459
▁하였으나	-4460
▁캄	-4461
▁킬	-4462
게임	-4463
경의	-4464
교의	-4465
어와	-4466
이와	-4467
타는	-4468
ine	-4469
▁소닉	-4470
▁통신	-4471
▁팀이	-4472
메리칸	-4473
시스트	-4474
▁DNA	-4475
▁보위가	-4476
▁빠르게	-4477
▁운동은	-4478
▁형태의	-4479
▁금메달을	-4480
▁김규식이	-4481
▁박근혜가	-4482
백만	-4483
설은	-4484
섰다	-4485
슨이	-4486
시로	-4487
음이	-4488
ich	-4489
ran	-4490
▁검은	-4491
▁공항	-4492
▁나왔	-4493
▁넥센	-4494
▁덧붙	-4495
▁마무	-4496
▁신설	-4497
▁신앙	-4498
▁압박	-4499
▁유사	-4500
▁이순	-4501
▁이정	-4502
▁재직	-4503
▁허리	-4504
리스토	-4505
우스의	-4506
인에게	-4507
▁경제적	-4508
▁그랜드	-4509
▁남한산	-4510
▁벌어진	-4511
▁상당한	-4512
▁소식을	-4513
▁원인이	-4514
▁의하여	-4515
▁현재의	-4516
▁후보는	-4517
들로부터	-4518
▁시작으로	-4519
내기	-4520
석이	-4521
세대	-4522
없는	-4523
오프	-4524
▁개막	-4525
▁말에	-4526
▁매니	-4527
▁보급	-4528
▁북부	-4529
▁비욘	-4530
▁인근	-4531
▁조합	-4532
▁주기	-4533
▁투수	-4534
▁피어	-4535
니메데	-4536
▁역할은	-4537
▁주장을	-4538
▁주한미	-4539
하였다고	-4540
▁1958	-4541
▁강희제의	-4542
▁닉	-4543
▁됐	-4544
거운	-4545
프레	-4546
ore	-4547
▁in	-4548
▁강남	-4549
▁로저	-4550
▁막기	-4551
▁몽골	-4552
▁순천	-4553
▁심리	-4554
▁이곳	-4555
▁이온	-4556
▁재개	-4557
▁패러	-4558
▁표준	-4559
까지는	-4560
스러운	-4561
정으로	-4562
▁계기가	-4563
▁변호사	-4564
▁소비에	-4565
▁이것을	-4566
▁조직은	-4567
▁청소년	-4568
▁히어로	-4569
▁기록하며	-4570
▁승부조작	-4571
▁적극적으로	-4572
90	-4573
AR	-4574
SP	-4575
건을	-4576
미의	-4577
본부	-4578
튜브	-4579
홈런	-4580
ity	-4581
▁강원	-4582
▁경상	-4583
▁뒤를	-4584
▁마침	-4585
▁망명	-4586
▁방식	-4587
▁수송	-4588
▁아주	-4589
▁종종	-4590
▁측은	-4591
▁한양	-4592
전으로	-4593
▁경기의	-4594
▁내렸다	-4595
▁반드시	-4596
▁받았고	-4597
▁부분을	-4598
▁유사한	-4599
▁가니메데	-4600
▁사람들을	-4601
▁램	-4602
에만	-4603
즈와	-4604
지자	-4605
트너	-4606
▁궤도	-4607
▁글로	-4608
▁모여	-4609
▁몰아	-4610
▁반환	-4611
▁보냈	-4612
▁브리	-4613
▁선박	-4614
▁스크	-4615
▁썼다	-4616
▁앞에	-4617
▁왕조	-4618
▁의무	-4619
▁자극	-4620
▁장이	-4621
▁주고	-4622
▁주류	-4623
▁지은	-4624
▁투쟁	-4625
▁폭탄	-4626
▁황태	-4627
번째로	-4628
우스가	-4629
▁그레고	-4630
▁못하는	-4631
▁상당히	-4632
▁세인트	-4633
▁스위스	-4634
▁시즌에	-4635
▁온라인	-4636
▁선거에서	-4637
▁유일하게	-4638
▁스테고사우	-4639
58	-4640
▁꽃	-4641
▁삭	-4642
▁쿰	-4643
고가	-4644
니티	-4645
문은	-4646
물로	-4647
선과	-4648
티아	-4649
▁검사	-4650
▁결의	-4651
▁고위	-4652
▁단편	-4653
▁담배	-4654
▁독재	-4655
▁브래	-4656
▁서버	-4657
▁앨런	-4658
▁에서	-4659
▁제일	-4660
▁조절	-4661
▁측정	-4662
라비아	-4663
식에서	-4664
▁MTV	-4665
▁노동자	-4666
▁레코드	-4667
▁익스플로	-4668
▁존재하는	-4669
te	-4670
▁듀	-4671
▁쾌	-4672
능을	-4673
방을	-4674
보는	-4675
왕의	-4676
월드	-4677
인도	-4678
치게	-4679
치에	-4680
치지	-4681
크가	-4682
ear	-4683
▁당사	-4684
▁도끼	-4685
▁때에	-4686
▁클래	-4687
▁토르	-4688
▁항복	-4689
▁해산	-4690
▁확립	-4691
기에서	-4692
레이션	-4693
▁떨어져	-4694
▁문제는	-4695
▁바그너	-4696
▁불렀다	-4697
▁사용할	-4698
▁어린이	-4699
▁페이스	-4700
▁드라마는	-4701
▁자유주의	-4702
▁하였으며	-4703
▁로스앤젤레스	-4704
▁왼	-4705
면을	-4706
배우	-4707
사람	-4708
석은	-4709
아노	-4710
환이	-4711
▁관광	-4712
▁급진	-4713
▁마크	-4714
▁무대	-4715
▁성과	-4716
▁속한	-4717
▁아인	-4718
▁여섯	-4719
▁운전	-4720
▁유도	-4721
▁자동	-4722
▁전후	-4723
▁제정	-4724
▁출간	-4725
▁탄압	-4726
▁탑재	-4727
▁행위	-4728
▁허락	-4729
▁그레이	-4730
▁능력을	-4731
▁데이터	-4732
▁선수의	-4733
▁시티즈	-4734
▁오카자	-4735
▁1500	-4736
▁1942	-4737
▁임시정부	-4738
.(	-4739
미네	-4740
세와	-4741
장인	-4742
der	-4743
▁33	-4744
▁가서	-4745
▁감각	-4746
▁관중	-4747
▁기병	-4748
▁긴급	-4749
▁년도	-4750
▁농업	-4751
▁담은	-4752
▁도덕	-4753
▁동남	-4754
▁되자	-4755
▁모임	-4756
▁비상	-4757
▁상을	-4758
▁서부	-4759
▁승객	-4760
▁연출	-4761
▁이성	-4762
▁출입	-4763
▁클레	-4764
▁타일	-4765
▁탈락	-4766
▁필라	-4767
에게서	-4768
▁감독이	-4769
▁되었나	-4770
▁어려운	-4771
▁차이가	-4772
▁하였나	-4773
▁홈런을	-4774
▁1949	-4775
▁1967	-4776
▁일반적인	-4777
▁엔터테인먼트	-4778
ry	-4779
▁쳐	-4780
네스	-4781
당시	-4782
철도	-4783
화와	-4784
▁그해	-4785
▁내가	-4786
▁만약	-4787
▁명을	-4788
▁발간	-4789
▁불안	-4790
▁실행	-4791
▁심지	-4792
▁안보	-4793
▁지칭	-4794
▁처형	-4795
▁침몰	-4796
▁타격	-4797
▁합격	-4798
사이트	-4799
▁400	-4800
▁거대한	-4801
▁기회를	-4802
▁내용이	-4803
▁아이폰	-4804
▁앞으로	-4805
▁얻었다	-4806
▁올렸다	-4807
▁제작한	-4808
▁1969	-4809
%,	-4810
23	-4811
26	-4812
ll	-4813
▁뱀	-4814
▁털	-4815
로마	-4816
무라	-4817
바르	-4818
씨의	-4819
호와	-4820
ess	-4821
▁계열	-4822
▁납치	-4823
▁높이	-4824
▁대법	-4825
▁이제	-4826
▁즉시	-4827
▁직원	-4828
▁체계	-4829
▁토마	-4830
▁해도	-4831
▁허위	-4832
▁현상	-4833
되어야	-4834
▁개최된	-4835
▁새롭게	-4836
▁유전자	-4837
▁이들이	-4838
▁이론을	-4839
▁줄어들	-4840
▁특별한	-4841
대학교의	-4842
하였지만	-4843
▁아키나의	-4844
▁붉	-4845
▁빚	-4846
마를	-4847
복지	-4848
부대	-4849
요일	-4850
은행	-4851
포를	-4852
해가	-4853
▁가요	-4854
▁곳에	-4855
▁근본	-4856
▁내에	-4857
▁넓은	-4858
▁다룬	-4859
▁드레	-4860
▁무한	-4861
▁빼앗	-4862
▁수집	-4863
▁스케	-4864
▁신분	-4865
▁일은	-4866
▁중세	-4867
▁중인	-4868
▁체질	-4869
▁프랜	-4870
▁호소	-4871
하라는	-4872
▁변화를	-4873
▁아이돌	-4874
▁연기한	-4875
▁의원이	-4876
▁조선의	-4877
▁종류의	-4878
▁1956	-4879
qu	-4880
▁앉	-4881
곡을	-4882
등을	-4883
러진	-4884
보고	-4885
비서	-4886
센트	-4887
실의	-4888
에선	-4889
천만	-4890
통신	-4891
ive	-4892
▁37	-4893
▁US	-4894
▁감옥	-4895
▁공사	-4896
▁대략	-4897
▁미야	-4898
▁알파	-4899
▁연평	-4900
▁예비	-4901
▁전사	-4902
▁트랜	-4903
▁페더	-4904
▁해에	-4905
ight	-4906
▁가수는	-4907
▁설립된	-4908
▁숫자는	-4909
▁행동을	-4910
▁1943	-4911
▁일어나는	-4912
▁초등학교	-4913
▁시작되었다	-4914
결승	-4915
권과	-4916
르만	-4917
미디	-4918
언을	-4919
었을	-4920
자금	-4921
점의	-4922
▁갖게	-4923
▁갤럭	-4924
▁교향	-4925
▁나뉘	-4926
▁남쪽	-4927
▁많다	-4928
▁메인	-4929
▁시상	-4930
▁외계	-4931
▁이종	-4932
▁일제	-4933
▁일컫	-4934
▁중립	-4935
▁집행	-4936
▁추모	-4937
▁클리	-4938
▁표시	-4939
당했다	-4940
리아의	-4941
스럽게	-4942
제에서	-4943
▁그것을	-4944
▁그러한	-4945
▁다르게	-4946
▁뭐라고	-4947
▁성공을	-4948
▁이전의	-4949
▁인물의	-4950
▁전쟁의	-4951
▁정부에	-4952
▁1948	-4953
▁있었다고	-4954
BO	-4955
ub	-4956
uc	-4957
▁띄	-4958
▁믹	-4959
▁층	-4960
강희	-4961
급을	-4962
기업	-4963
동맹	-4964
시와	-4965
▁KT	-4966
▁거짓	-4967
▁공룡	-4968
▁공통	-4969
▁그때	-4970
▁그와	-4971
▁노벨	-4972
▁돌려	-4973
▁둘째	-4974
▁부진	-4975
▁소장	-4976
▁이란	-4977
▁저술	-4978
국에서	-4979
실에서	-4980
였는데	-4981
▁노래는	-4982
▁등에서	-4983
▁주장이	-4984
하였나요	-4985
▁1971	-4986
▁공산주의	-4987
▁김대중의	-4988
▁사람들의	-4989
▁아메리칸	-4990
▁언제부터	-4991
▁존재한다	-4992
▁현재까지	-4993
28	-4994
29	-4995
34	-4996
SI	-4997
▁킹	-4998
격은	-4999
관계	-5000
누스	-5001
민의	-5002
병원	-5003
산화	-5004
세계	-5005
▁교환	-5006
▁김경	-5007
▁김정	-5008
▁김종	-5009
▁도와	-5010
▁독자	-5011
▁레오	-5012
▁맞추	-5013
▁배출	-5014
▁백성	-5015
▁악화	-5016
▁완벽	-5017
▁임금	-5018
▁주병	-5019
▁책의	-5020
기까지	-5021
았다고	-5022
역으로	-5023
▁대표는	-5024
▁말하는	-5025
▁맡았던	-5026
▁아들이	-5027
▁의미를	-5028
▁인기가	-5029
▁일본은	-5030
▁졸업한	-5031
▁황제는	-5032
▁1953	-5033
▁발생하는	-5034
▁밝혀졌다	-5035
▁전두환이	-5036
▁발표하였다	-5037
▁서울대학교	-5038
▁유나이티드	-5039
.9	-5040
▁값	-5041
▁쥐	-5042
▁쫓	-5043
▁횟	-5044
구로	-5045
대상	-5046
론이	-5047
목을	-5048
미르	-5049
졌던	-5050
쿠스	-5051
ain	-5052
▁고등	-5053
▁고발	-5054
▁극복	-5055
▁두려	-5056
▁들고	-5057
▁무료	-5058
▁신사	-5059
▁아나	-5060
▁왕의	-5061
▁요리	-5062
▁일정	-5063
▁크라	-5064
▁타블	-5065
▁폭주	-5066
▁호주	-5067
▁확산	-5068
▁후퇴	-5069
해졌다	-5070
▁600	-5071
▁기능을	-5072
▁다음날	-5073
▁동일한	-5074
▁등장한	-5075
▁반대로	-5076
▁어디서	-5077
▁진행된	-5078
▁진행한	-5079
▁카스트	-5080
▁회사의	-5081
하겠다는	-5082
▁1939	-5083
▁1968	-5084
▁1974	-5085
▁방법으로	-5086
▁기록하였다	-5087
▁대한민국에서	-5088
▁삽	-5089
▁셋	-5090
▁쓸	-5091
광역	-5092
구리	-5093
나이	-5094
되면	-5095
바다	-5096
보병	-5097
사고	-5098
안타	-5099
위해	-5100
활동	-5101
ber	-5102
▁다카	-5103
▁무너	-5104
▁보존	-5105
▁북쪽	-5106
▁선호	-5107
▁소리	-5108
▁의존	-5109
▁적절	-5110
▁주연	-5111
▁지니	-5112
▁질량	-5113
▁취득	-5114
▁코벨	-5115
▁편성	-5116
우스는	-5117
▁문제에	-5118
▁서비스	-5119
▁세계의	-5120
▁앨범을	-5121
▁이끌어	-5122
▁종교는	-5123
▁Boys	-5124
▁자신들의	-5125
▁출연했다	-5126
▁포르투갈	-5127
kg	-5128
ld	-5129
▁춘	-5130
구조	-5131
름은	-5132
어요	-5133
책은	-5134
투쟁	-5135
▁공포	-5136
▁군주	-5137
▁붙여	-5138
▁사형	-5139
▁쓰는	-5140
▁아침	-5141
▁원자	-5142
▁이행	-5143
▁자치	-5144
▁장교	-5145
▁전원	-5146
▁점점	-5147
▁주최	-5148
▁지식	-5149
▁하늘	-5150
▁후속	-5151
메이크	-5152
속도로	-5153
었지만	-5154
▁곳에서	-5155
▁교회의	-5156
▁권력을	-5157
▁금액은	-5158
▁뜻하는	-5159
▁마무리	-5160
▁목표로	-5161
▁선수로	-5162
▁유튜브	-5163
▁이들을	-5164
▁정당은	-5165
▁지도자	-5166
▁가능성을	-5167
▁제외하고	-5168
▁청나라의	-5169
▁코벨레스	-5170
▁익스플로러	-5171
▁꺾	-5172
▁택	-5173
개로	-5174
되게	-5175
비로	-5176
상태	-5177
지인	-5178
체에	-5179
카와	-5180
해주	-5181
ant	-5182
ast	-5183
▁교각	-5184
▁권력	-5185
▁난민	-5186
▁니콜	-5187
▁방사	-5188
▁부담	-5189
▁선전	-5190
▁순간	-5191
▁장례	-5192
▁재학	-5193
▁주간	-5194
▁트위	-5195
▁프란	-5196
▁활발	-5197
▁히트	-5198
▁178	-5199
▁구조를	-5200
▁미국에	-5201
▁상태로	-5202
▁성과를	-5203
▁여기에	-5204
▁카이사	-5205
▁현상을	-5206
▁활동전	-5207
▁1962	-5208
▁1964	-5209
▁1978	-5210
▁부르는가	-5211
▁상대적으로	-5212
▁Z	-5213
▁e	-5214
▁섹	-5215
▁톰	-5216
데이	-5217
동생	-5218
들리	-5219
라크	-5220
렸던	-5221
명에	-5222
바로	-5223
용은	-5224
원한	-5225
유가	-5226
터리	-5227
토늄	-5228
파를	-5229
▁32	-5230
▁de	-5231
▁to	-5232
▁강의	-5233
▁거듭	-5234
▁그곳	-5235
▁남긴	-5236
▁메시	-5237
▁멸망	-5238
▁서비	-5239
▁소년	-5240
▁신군	-5241
▁아동	-5242
▁암컷	-5243
▁연간	-5244
▁유출	-5245
▁직전	-5246
▁철저	-5247
▁헨리	-5248
▁흥행	-5249
▁국무총	-5250
▁권한을	-5251
▁되었던	-5252
▁보냈다	-5253
▁부대는	-5254
▁순위는	-5255
▁스마트	-5256
▁요구한	-5257
▁음악을	-5258
▁일본에	-5259
▁제도를	-5260
▁헤이우	-5261
▁리메이크	-5262
▁수상했다	-5263
▁알려졌다	-5264
▁평가했다	-5265
▁동일본대지	-5266
36	-5267
aw	-5268
▁돼	-5269
▁뜨	-5270
▁란	-5271
동물	-5272
드니	-5273
르시	-5274
으니	-5275
일리	-5276
조차	-5277
헨티	-5278
회견	-5279
▁게릭	-5280
▁군대	-5281
▁더블	-5282
▁만한	-5283
▁무게	-5284
▁좌익	-5285
▁참전	-5286
▁초청	-5287
▁카시	-5288
▁후예	-5289
▁훌륭	-5290
국으로	-5291
▁권리를	-5292
▁발언을	-5293
▁운동의	-5294
▁있었기	-5295
▁전쟁은	-5296
▁중학교	-5297
▁필요가	-5298
▁헤이즐	-5299
▁획득한	-5300
▁1966	-5301
▁아버지는	-5302
▁지금까지	-5303
PC	-5304
av	-5305
▁얘	-5306
▁힐	-5307
가락	-5308
관과	-5309
대신	-5310
렬한	-5311
명과	-5312
부한	-5313
왕을	-5314
투스	-5315
▁건의	-5316
▁고정	-5317
▁관여	-5318
▁규칙	-5319
▁다케	-5320
▁마치	-5321
▁사과	-5322
▁완공	-5323
▁자전	-5324
▁제어	-5325
▁지어	-5326
▁토끼	-5327
▁혼즈	-5328
델피아	-5329
▁120	-5330
▁들어서	-5331
▁선정한	-5332
▁세력을	-5333
▁실시한	-5334
▁이상을	-5335
▁임명된	-5336
▁준결승	-5337
▁태어났	-5338
▁판결을	-5339
이었으며	-5340
▁기반으로	-5341
▁받아들이	-5342
▁아르헨티	-5343
▁영국에서	-5344
▁만슈타인의	-5345
▁어워드에서	-5346
▁조선민주주의인민공화국	-5347
48	-5348
▁든	-5349
▁텍	-5350
돌프	-5351
병을	-5352
연대	-5353
▁공중	-5354
▁느낌	-5355
▁도르	-5356
▁르네	-5357
▁말이	-5358
▁방지	-5359
▁본선	-5360
▁생애	-5361
▁위성	-5362
▁유기	-5363
▁유태	-5364
▁육영	-5365
▁일시	-5366
▁자녀	-5367
▁정통	-5368
▁집정	-5369
▁침략	-5370
▁펼쳐	-5371
▁프라	-5372
구에서	-5373
세기의	-5374
▁관계가	-5375
▁마침내	-5376
▁명나라	-5377
▁몇개의	-5378
▁비율은	-5379
▁연기를	-5380
▁오버워	-5381
▁이로써	-5382
▁전까지	-5383
▁평가한	-5384
전에서는	-5385
▁박정희가	-5386
▁새누리당	-5387
▁신한청년	-5388
▁최진실의	-5389
▁크리스토	-5390
▁태어났다	-5391
▁플루토늄	-5392
▁해당하는	-5393
38	-5394
▁굳	-5395
▁꺼	-5396
고는	-5397
곡은	-5398
사랑	-5399
아서	-5400
하신	-5401
▁SM	-5402
▁감사	-5403
▁농민	-5404
▁득표	-5405
▁명확	-5406
▁바라	-5407
▁병원	-5408
▁봉기	-5409
▁분포	-5410
▁비서	-5411
▁쓰인	-5412
▁우루	-5413
▁전공	-5414
▁합동	-5415
▁협상	-5416
관계를	-5417
관에서	-5418
년만에	-5419
대통령	-5420
레이크	-5421
만으로	-5422
▁교육을	-5423
▁여기서	-5424
▁영감을	-5425
▁있어야	-5426
▁제도는	-5427
▁트리플	-5428
▁페리가	-5429
▁1965	-5430
▁대통령을	-5431
▁부정적인	-5432
▁조선인민	-5433
AS	-5434
cm	-5435
ip	-5436
▁빙	-5437
▁숲	-5438
경에	-5439
국과	-5440
모리	-5441
슬림	-5442
시스	-5443
신문	-5444
역의	-5445
장한	-5446
재는	-5447
트릭	-5448
협의	-5449
후보	-5450
히는	-5451
ong	-5452
▁강요	-5453
▁골을	-5454
▁군인	-5455
▁넘겨	-5456
▁당의	-5457
▁복지	-5458
▁상위	-5459
▁소비	-5460
▁소수	-5461
▁싸우	-5462
▁와트	-5463
▁적합	-5464
▁제품	-5465
▁평창	-5466
라운드	-5467
였다고	-5468
입니다	-5469
▁176	-5470
▁마드리	-5471
▁먹이를	-5472
▁사회의	-5473
▁새정치	-5474
▁소련의	-5475
▁악티늄	-5476
▁누구인가요	-5477
▁필라델피아	-5478
)’	-5479
55	-5480
▁v	-5481
▁칙	-5482
결을	-5483
계열	-5484
는지	-5485
다면	-5486
리며	-5487
북도	-5488
사태	-5489
재판	-5490
티노	-5491
▁댄스	-5492
▁발탁	-5493
▁북미	-5494
▁붉은	-5495
▁블라	-5496
▁수석	-5497
▁수양	-5498
▁신라	-5499
▁암호	-5500
▁역임	-5501
▁연세	-5502
▁완료	-5503
▁이스	-5504
▁접촉	-5505
▁칭찬	-5506
▁해양	-5507
▁협의	-5508
였지만	-5509
▁BBC	-5510
▁결혼한	-5511
▁그들이	-5512
▁말았다	-5513
▁방식은	-5514
▁별명은	-5515
▁생각을	-5516
▁없었던	-5517
▁외국인	-5518
▁전투는	-5519
▁제안한	-5520
되었지만	-5521
▁기자회견	-5522
▁대부분은	-5523
▁프로듀서	-5524
▁프리스틀	-5525
▁g	-5526
▁멈	-5527
▁핑	-5528
네이	-5529
문학	-5530
생의	-5531
오가	-5532
재단	-5533
주년	-5534
퍼드	-5535
▁경계	-5536
▁공기	-5537
▁교도	-5538
▁그만	-5539
▁다스	-5540
▁부동	-5541
▁부탁	-5542
▁비중	-5543
▁앙리	-5544
▁없게	-5545
▁예선	-5546
▁원인	-5547
▁전설	-5548
▁전주	-5549
▁중의	-5550
▁쿠데	-5551
▁크누	-5552
▁통상	-5553
▁피터	-5554
▁황금	-5555
▁히데	-5556
아니아	-5557
었다는	-5558
▁벗어나	-5559
▁선교사	-5560
▁세웠다	-5561
▁우루과	-5562
▁작가는	-5563
▁코미디	-5564
▁활동한	-5565
▁1910	-5566
▁차지하는	-5567
▁라부아지에	-5568
39	-5569
mm	-5570
▁헝	-5571
드레	-5572
안전	-5573
연이	-5574
영을	-5575
와이	-5576
용을	-5577
이닝	-5578
제도	-5579
ers	-5580
▁3,	-5581
▁고양	-5582
▁공을	-5583
▁기다	-5584
▁내의	-5585
▁대다	-5586
▁대북	-5587
▁무죄	-5588
▁법은	-5589
▁보상	-5590
▁사우	-5591
▁손을	-5592
▁아파	-5593
▁에르	-5594
▁이념	-5595
▁장군	-5596
▁조종	-5597
▁중성	-5598
▁총리	-5599
▁추방	-5600
활동을	-5601
▁공개된	-5602
▁내용은	-5603
▁다수의	-5604
▁되는데	-5605
▁마르크	-5606
▁멤버는	-5607
▁비교적	-5608
▁사건에	-5609
▁안철수	-5610
▁움직임	-5611
▁의혹을	-5612
▁저자는	-5613
▁전쟁에	-5614
▁충분히	-5615
▁트위터	-5616
▁현재는	-5617
▁건륭제가	-5618
▁북아메리카	-5619
▁스코틀랜드	-5620
▁이루어졌다	-5621
.'	-5622
ud	-5623
▁[	-5624
고등	-5625
나타	-5626
률을	-5627
망을	-5628
용한	-5629
일과	-5630
키의	-5631
환경	-5632
▁구매	-5633
▁단지	-5634
▁라인	-5635
▁롤링	-5636
▁무라	-5637
▁미술	-5638
▁바깥	-5639
▁분명	-5640
▁수컷	-5641
▁스미	-5642
▁싸움	-5643
▁얻을	-5644
▁위를	-5645
▁유행	-5646
▁입법	-5647
▁정지	-5648
▁정체	-5649
▁창극	-5650
▁청구	-5651
자들과	-5652
하기를	-5653
▁개발한	-5654
▁경기가	-5655
▁나라를	-5656
▁돌아온	-5657
▁무슬림	-5658
▁반란을	-5659
▁복잡한	-5660
▁생각한	-5661
▁않았던	-5662
▁조사를	-5663
▁카메라	-5664
▁토머스	-5665
▁1959	-5666
▁1963	-5667
▁귀신고래	-5668
▁출연하였다	-5669
49	-5670
ng	-5671
가족	-5672
다시	-5673
들인	-5674
리나	-5675
리학	-5676
문제	-5677
미아	-5678
오카	-5679
정도	-5680
진과	-5681
쩌둥	-5682
차는	-5683
회사	-5684
▁되기	-5685
▁등판	-5686
▁마친	-5687
▁방면	-5688
▁비정	-5689
▁야스	-5690
▁이내	-5691
▁이하	-5692
▁주어	-5693
▁차단	-5694
▁포로	-5695
▁프랭	-5696
▁후기	-5697
▁흡수	-5698
▁힘들	-5699
▁가가는	-5700
▁달러를	-5701
▁들어간	-5702
▁성폭행	-5703
▁오래된	-5704
▁지금의	-5705
▁대한항공	-5706
▁되었는데	-5707
▁박정희의	-5708
▁받았다고	-5709
▁방향으로	-5710
▁상대팀은	-5711
▁소비에트	-5712
▁전쟁에서	-5713
▁프랑크푸	-5714
▁만슈타인이	-5715
▁좁	-5716
▁짜	-5717
고의	-5718
교통	-5719
리코	-5720
민족	-5721
시장	-5722
이너	-5723
진보	-5724
타운	-5725
해져	-5726
행성	-5727
훈련	-5728
ang	-5729
irl	-5730
▁SK	-5731
▁on	-5732
▁검증	-5733
▁당초	-5734
▁덴마	-5735
▁물고	-5736
▁부근	-5737
▁사전	-5738
▁상은	-5739
▁선임	-5740
▁성적	-5741
▁소집	-5742
▁신뢰	-5743
▁연안	-5744
▁응답	-5745
▁이날	-5746
▁장착	-5747
▁전형	-5748
▁진학	-5749
▁집필	-5750
▁포크	-5751
▁표기	-5752
▁했나	-5753
▁형식	-5754
자로서	-5755
▁강하게	-5756
▁기록이	-5757
▁발표된	-5758
▁벨기에	-5759
▁세이부	-5760
▁수밖에	-5761
▁위키백	-5762
▁작품을	-5763
▁천주교	-5764
▁평론가	-5765
▁대해서도	-5766
▁마오쩌둥	-5767
▁아버지가	-5768
▁처음에는	-5769
▁지속적으로	-5770
46	-5771
ST	-5772
▁델	-5773
▁묶	-5774
▁햄	-5775
▁횡	-5776
구와	-5777
다이	-5778
드스	-5779
루베	-5780
셔널	-5781
어버	-5782
의로	-5783
조합	-5784
프랑	-5785
호로	-5786
ust	-5787
▁36	-5788
▁달려	-5789
▁당은	-5790
▁로렌	-5791
▁리듬	-5792
▁리버	-5793
▁매스	-5794
▁분할	-5795
▁상품	-5796
▁세금	-5797
▁승낙	-5798
▁안창	-5799
▁와이	-5800
▁이중	-5801
▁지향	-5802
▁집회	-5803
▁통산	-5804
▁평양	-5805
▁플로	-5806
▁호텔	-5807
▁효율	-5808
▁훼손	-5809
정에서	-5810
▁가가의	-5811
▁관심이	-5812
▁매니저	-5813
▁소속사	-5814
▁스티븐	-5815
▁에너지	-5816
▁이상이	-5817
▁작품의	-5818
▁참가한	-5819
▁편지를	-5820
▁후에는	-5821
슈타인의	-5822
학자들은	-5823
▁1977	-5824
▁5000	-5825
▁건륭제는	-5826
▁동계올림픽	-5827
▁묵	-5828
▁폼	-5829
〉(	-5830
드에	-5831
수사	-5832
용이	-5833
인사	-5834
장애	-5835
중심	-5836
칭은	-5837
토가	-5838
혔다	-5839
ass	-5840
▁47	-5841
▁가담	-5842
▁가을	-5843
▁경성	-5844
▁고조	-5845
▁관료	-5846
▁권유	-5847
▁도모	-5848
▁리뷰	-5849
▁목숨	-5850
▁복무	-5851
▁복원	-5852
▁블록	-5853
▁시설	-5854
▁시의	-5855
▁외부	-5856
▁장르	-5857
▁저작	-5858
▁접착	-5859
▁주지	-5860
▁피겨	-5861
▁한성	-5862
▁흐름	-5863
졌는데	-5864
▁갤럭시	-5865
▁경우는	-5866
▁기술을	-5867
▁동맹을	-5868
▁성공한	-5869
▁소프트	-5870
▁있었나	-5871
▁제시한	-5872
▁지구의	-5873
▁토론토	-5874
민주연합	-5875
▁1923	-5876
▁1961	-5877
▁러시아의	-5878
▁생각했다	-5879
▁섞	-5880
도르	-5881
미널	-5882
밀한	-5883
브로	-5884
색을	-5885
스케	-5886
슨의	-5887
실에	-5888
청을	-5889
▁갈라	-5890
▁갈릴	-5891
▁구원	-5892
▁길을	-5893
▁꾸준	-5894
▁논쟁	-5895
▁대화	-5896
▁되며	-5897
▁로빈	-5898
▁번의	-5899
▁산맥	-5900
▁색깔	-5901
▁성인	-5902
▁신체	-5903
▁오직	-5904
▁요소	-5905
▁절반	-5906
▁하던	-5907
▁학술	-5908
연구소	-5909
인가요	-5910
하지는	-5911
▁Wor	-5912
▁늑대의	-5913
▁선정된	-5914
▁올스타	-5915
▁일컫는	-5916
▁자신은	-5917
▁조치를	-5918
▁첫번째	-5919
▁피해자	-5920
▁한국인	-5921
▁허리케	-5922
▁호평을	-5923
▁화이트	-5924
▁히틀러	-5925
▁김대중은	-5926
▁박근혜는	-5927
▁아버지의	-5928
▁이시미네	-5929
▁최진실은	-5930
▁포함되어	-5931
▁플레이오프	-5932
▁알로사우루스	-5933
ee	-5934
▁는	-5935
▁덩	-5936
감이	-5937
나미	-5938
령이	-5939
미래	-5940
뿐만	-5941
씨를	-5942
연히	-5943
위와	-5944
재의	-5945
크를	-5946
▁39	-5947
▁55	-5948
▁갖는	-5949
▁김재	-5950
▁단계	-5951
▁답변	-5952
▁도움	-5953
▁동쪽	-5954
▁몇명	-5955
▁미리	-5956
▁신의	-5957
▁일단	-5958
▁입단	-5959
▁추구	-5960
▁출현	-5961
▁합쳐	-5962
▁황교	-5963
▁회장	-5964
▁각각의	-5965
▁강희제	-5966
▁로스쿨	-5967
▁보았다	-5968
▁비트코	-5969
▁사운드	-5970
▁상황에	-5971
▁속하는	-5972
▁스파이	-5973
▁1918	-5974
▁반대하는	-5975
▁연기했다	-5976
▁일어났다	-5977
▁페이스북	-5978
▁사람들에게	-5979
▁엽	-5980
경은	-5981
급의	-5982
니츠	-5983
대원	-5984
마리	-5985
클리	-5986
티에	-5987
함과	-5988
▁급격	-5989
▁내내	-5990
▁노출	-5991
▁눈에	-5992
▁단어	-5993
▁대사	-5994
▁동방	-5995
▁만났	-5996
▁많아	-5997
▁법적	-5998
▁베어	-5999
▁사임	-6000
▁새벽	-6001
▁서서	-6002
▁얻게	-6003
▁영구	-6004
▁자는	-6005
▁한효	-6006
▁헝가	-6007
▁후임	-6008
그리거	-6009
루스의	-6010
였으나	-6011
용으로	-6012
하기에	-6013
한다면	-6014
▁규모의	-6015
▁대상이	-6016
▁대회는	-6017
▁베컴은	-6018
▁베컴이	-6019
▁보이지	-6020
▁심각한	-6021
▁아이스	-6022
▁용어는	-6023
▁위원회	-6024
▁음반을	-6025
▁정확한	-6026
▁중에는	-6027
▁했다고	-6028
으로서의	-6029
이었으나	-6030
프로그램	-6031
▁1955	-6032
▁김규식은	-6033
▁나타났다	-6034
▁맥그리거	-6035
▁받았으며	-6036
▁본격적인	-6037
▁이후에는	-6038
37	-6039
▁끈	-6040
▁뼈	-6041
▁흉	-6042
기구	-6043
례를	-6044
마르	-6045
바라	-6046
실로	-6047
역이	-6048
자유	-6049
차가	-6050
티즌	-6051
해도	-6052
-20	-6053
▁가치	-6054
▁강경	-6055
▁거리	-6056
▁건립	-6057
▁관해	-6058
▁기후	-6059
▁다수	-6060
▁대개	-6061
▁멀리	-6062
▁목적	-6063
▁무리	-6064
▁보안	-6065
▁불교	-6066
▁비례	-6067
▁시사	-6068
▁시에	-6069
▁양자	-6070
▁여왕	-6071
▁예로	-6072
▁오랫	-6073
▁전부	-6074
▁클라	-6075
▁테오	-6076
▁펼친	-6077
▁하에	-6078
▁하인	-6079
▁회담	-6080
▁흔히	-6081
리자베	-6082
시우스	-6083
태평양	-6084
폴리스	-6085
▁대표로	-6086
▁도르곤	-6087
▁두번째	-6088
▁만들기	-6089
▁세계를	-6090
▁어디를	-6091
▁역사적	-6092
▁연구가	-6093
▁오리콘	-6094
▁위대한	-6095
▁일부는	-6096
▁정권을	-6097
▁한국이	-6098
▁행정부	-6099
▁후보가	-6100
이었지만	-6101
▁1940	-6102
▁발매했다	-6103
▁올림픽은	-6104
▁챔피언스	-6105
Single	-6106
▁때문이었다	-6107
▁프로그램을	-6108
▁더불어민주당	-6109
▁n	-6110
▁갱	-6111
▁탁	-6112
▁휩	-6113
년경	-6114
독립	-6115
버드	-6116
션은	-6117
으려	-6118
인권	-6119
주고	-6120
중근	-6121
현의	-6122
ian	-6123
▁나선	-6124
▁뉴스	-6125
▁드루	-6126
▁레알	-6127
▁물려	-6128
▁받기	-6129
▁양키	-6130
▁열어	-6131
▁워커	-6132
▁위로	-6133
▁주제	-6134
▁폐기	-6135
▁표절	-6136
▁하자	-6137
▁항쟁	-6138
더스푼	-6139
주의의	-6140
▁NPC	-6141
▁건륭제	-6142
▁게임의	-6143
▁경찰에	-6144
▁군대는	-6145
▁그것은	-6146
▁도시의	-6147
▁만들고	-6148
▁받으며	-6149
▁사람들	-6150
▁아르키	-6151
▁의사를	-6152
▁이른바	-6153
▁조직의	-6154
되었나요	-6155
▁브리트니	-6156
▁오랫동안	-6157
▁최진실이	-6158
▁누구였는가	-6159
▁올림픽에서	-6160
▁즈	-6161
▁캔	-6162
▁퀸	-6163
느님	-6164
드라	-6165
베리	-6166
석의	-6167
스톤	-6168
여서	-6169
웠던	-6170
이상	-6171
정과	-6172
체육	-6173
캐슬	-6174
타이	-6175
판의	-6176
▁계엄	-6177
▁남겨	-6178
▁대폭	-6179
▁만족	-6180
▁모터	-6181
▁목탁	-6182
▁보편	-6183
▁비공	-6184
▁살고	-6185
▁수단	-6186
▁압도	-6187
▁연관	-6188
▁오염	-6189
▁외야	-6190
▁유죄	-6191
▁이벤	-6192
▁이영	-6193
▁작동	-6194
▁저녁	-6195
▁적응	-6196
▁카페	-6197
▁쿠퍼	-6198
▁피처	-6199
▁학습	-6200
아시아	-6201
주었다	-6202
▁가즈히	-6203
▁개념을	-6204
▁개봉한	-6205
▁경우도	-6206
▁뉴캐슬	-6207
▁라틴어	-6208
▁마치고	-6209
▁모습이	-6210
▁바이러	-6211
▁사업을	-6212
▁위치를	-6213
▁후보에	-6214
▁빅토리아	-6215
▁유로파의	-6216
▁한국에서	-6217
▁소녀시대의	-6218
▁프랑크푸르트	-6219
47	-6220
▁앵	-6221
감독	-6222
격에	-6223
라를	-6224
마저	-6225
소리	-6226
았나	-6227
액을	-6228
이게	-6229
재로	-6230
조약	-6231
층의	-6232
per	-6233
▁게시	-6234
▁골드	-6235
▁공부	-6236
▁교사	-6237
▁라스	-6238
▁목포	-6239
▁미쓰	-6240
▁방위	-6241
▁수를	-6242
▁아름	-6243
▁유타	-6244
▁지각	-6245
▁창당	-6246
▁커버	-6247
▁토지	-6248
▁포는	-6249
▁폭로	-6250
▁한때	-6251
▁회색	-6252
된다고	-6253
문에서	-6254
적이다	-6255
특별시	-6256
▁대표팀	-6257
▁목탁수	-6258
▁불만을	-6259
▁세상을	-6260
▁아시안	-6261
▁안에서	-6262
▁유럽의	-6263
▁일어날	-6264
▁정부를	-6265
▁취임한	-6266
▁콘스탄	-6267
▁계속해서	-6268
▁상태에서	-6269
▁설명했다	-6270
▁아마루베	-6271
▁위더스푼	-6272
▁선정되었다	-6273
▁아르키메데	-6274
69	-6275
ov	-6276
▁꾀	-6277
▁쏟	-6278
건은	-6279
나를	-6280
미에	-6281
실험	-6282
역에	-6283
올린	-6284
주일	-6285
클럽	-6286
클린	-6287
▁43	-6288
▁Cl	-6289
▁개설	-6290
▁고안	-6291
▁밀려	-6292
▁살인	-6293
▁상의	-6294
▁서술	-6295
▁싶어	-6296
▁주된	-6297
▁참모	-6298
▁폐쇄	-6299
▁하드	-6300
▁해운	-6301
▁회고	-6302
지에는	-6303
▁가졌다	-6304
▁갑자기	-6305
▁경향이	-6306
▁나아가	-6307
▁도착한	-6308
▁레이블	-6309
▁마음을	-6310
▁방영된	-6311
▁보도한	-6312
▁부분이	-6313
▁스튜어	-6314
▁신공항	-6315
▁오른쪽	-6316
▁우리가	-6317
▁유니폼	-6318
▁이정희	-6319
▁이후의	-6320
▁조약은	-6321
▁포스트	-6322
▁형태를	-6323
되었다는	-6324
엔터테인	-6325
하면서도	-6326
▁1954	-6327
▁그리하여	-6328
▁대학교는	-6329
▁타일러의	-6330
▁고려대학교	-6331
▁띠	-6332
개국	-6333
계와	-6334
단계	-6335
디가	-6336
르기	-6337
발을	-6338
생산	-6339
수에	-6340
심이	-6341
심한	-6342
열을	-6343
융합	-6344
자치	-6345
조한	-6346
차로	-6347
피를	-6348
화폐	-6349
황후	-6350
end	-6351
mer	-6352
▁가게	-6353
▁구별	-6354
▁극우	-6355
▁낭만	-6356
▁대우	-6357
▁라는	-6358
▁명명	-6359
▁서명	-6360
▁서쪽	-6361
▁석유	-6362
▁집에	-6363
▁천연	-6364
▁총선	-6365
▁컬링	-6366
▁후원	-6367
력발전	-6368
면서도	-6369
목으로	-6370
슈타인	-6371
았는데	-6372
진으로	-6373
▁가까이	-6374
▁과학적	-6375
▁내용의	-6376
▁달성한	-6377
▁달하는	-6378
▁독립을	-6379
▁매체는	-6380
▁벤허의	-6381
▁변화가	-6382
▁수양버	-6383
▁식민지	-6384
▁역할로	-6385
▁완전한	-6386
▁하나인	-6387
차전에서	-6388
▁1900	-6389
▁강조했다	-6390
▁거두었다	-6391
▁건륭제의	-6392
▁보여주는	-6393
▁사용되는	-6394
▁자리에서	-6395
▁정식으로	-6396
BA	-6397
ok	-6398
▁뚜	-6399
▁톱	-6400
과에	-6401
도한	-6402
보험	-6403
연은	-6404
요시	-6405
적의	-6406
청이	-6407
톨레	-6408
하를	-6409
ime	-6410
ure	-6411
▁감시	-6412
▁고교	-6413
▁나쁜	-6414
▁대리	-6415
▁독특	-6416
▁매일	-6417
▁멜로	-6418
▁목성	-6419
▁못해	-6420
▁발휘	-6421
▁샘프	-6422
▁시화	-6423
▁얻기	-6424
▁영상	-6425
▁옹호	-6426
▁왕이	-6427
▁이끈	-6428
▁이소	-6429
▁인쇄	-6430
▁적도	-6431
▁집을	-6432
▁추기	-6433
▁파업	-6434
▁패턴	-6435
▁피델	-6436
▁협약	-6437
부터는	-6438
우주연	-6439
▁개혁을	-6440
▁결정을	-6441
▁대학의	-6442
▁또다른	-6443
▁라이프	-6444
▁마스터	-6445
▁발전을	-6446
▁보스턴	-6447
▁상황이	-6448
▁심지어	-6449
▁오디션	-6450
▁우리는	-6451
▁이르러	-6452
▁피처링	-6453
▁학교는	-6454
▁1904	-6455
▁말하였다	-6456
▁민주노동	-6457
▁스케이팅	-6458
▁엘리자베	-6459
▁중국에서	-6460
▁1,000	-6461
pl	-6462
▁걷	-6463
▁랜	-6464
▁렌	-6465
▁챈	-6466
개가	-6467
널드	-6468
라면	-6469
론에	-6470
면에	-6471
을까	-6472
인조	-6473
침을	-6474
현이	-6475
회와	-6476
▁EP	-6477
▁격파	-6478
▁고리	-6479
▁광범	-6480
▁까지	-6481
▁내는	-6482
▁느낀	-6483
▁대답	-6484
▁맡고	-6485
▁성직	-6486
▁시내	-6487
▁시뮬	-6488
▁시인	-6489
▁안내	-6490
▁어니	-6491
▁에어	-6492
▁유인	-6493
▁저장	-6494
▁주관	-6495
▁진술	-6496
▁챈들	-6497
▁파울	-6498
▁페이	-6499
▁호흡	-6500
역에서	-6501
▁개인의	-6502
▁개최한	-6503
▁공격한	-6504
▁그룹의	-6505
▁금메달	-6506
▁논란을	-6507
▁논문을	-6508
▁안중근	-6509
▁영화에	-6510
▁원주민	-6511
▁전인범	-6512
▁죽음을	-6513
▁지니고	-6514
▁티베트	-6515
▁황제가	-6516
▁황제의	-6517
▁감독으로	-6518
▁사용하여	-6519
▁그레고리오	-6520
45	-6521
iv	-6522
oh	-6523
강을	-6524
공화	-6525
기념	-6526
노가	-6527
듯이	-6528
목은	-6529
세한	-6530
스틴	-6531
시절	-6532
약한	-6533
양의	-6534
전과	-6535
지면	-6536
차의	-6537
페르	-6538
함이	-6539
해튼	-6540
화학	-6541
ann	-6542
arl	-6543
▁경고	-6544
▁국토	-6545
▁끌려	-6546
▁능력	-6547
▁데려	-6548
▁박물	-6549
▁반박	-6550
▁보헤	-6551
▁비극	-6552
▁산소	-6553
▁서사	-6554
▁속해	-6555
▁습격	-6556
▁않게	-6557
▁앤드	-6558
▁위안	-6559
▁유권	-6560
▁인수	-6561
▁일곱	-6562
▁재단	-6563
▁전염	-6564
▁전화	-6565
▁조현	-6566
▁초래	-6567
▁컨셉	-6568
▁탈당	-6569
▁혁신	-6570
있는가	-6571
▁개발을	-6572
▁결성한	-6573
▁관련해	-6574
▁사령관	-6575
▁성격을	-6576
▁세력이	-6577
▁연구에	-6578
▁자체가	-6579
▁제기한	-6580
▁효과를	-6581
에서부터	-6582
▁모습으로	-6583
▁미국으로	-6584
▁의미하는	-6585
▁자본주의	-6586
▁플레이어	-6587
▁히로시마	-6588
▁닫	-6589
▁똑	-6590
리적	-6591
미사	-6592
보에	-6593
소득	-6594
슈테	-6595
실이	-6596
연한	-6597
오의	-6598
작은	-6599
전투	-6600
크와	-6601
환을	-6602
▁가설	-6603
▁갔다	-6604
▁광복	-6605
▁교토	-6606
▁그럼	-6607
▁기상	-6608
▁난이	-6609
▁되돌	-6610
▁맞서	-6611
▁모르	-6612
▁보건	-6613
▁스프	-6614
▁시공	-6615
▁신흥	-6616
▁없애	-6617
▁유진	-6618
▁이빨	-6619
▁일치	-6620
▁전라	-6621
▁전력	-6622
▁중공	-6623
▁창원	-6624
▁침입	-6625
▁편입	-6626
▁현금	-6627
▁현장	-6628
▁홀로	-6629
▁활성	-6630
니아의	-6631
달라고	-6632
▁부분에	-6633
▁설치한	-6634
▁승리한	-6635
▁열리는	-6636
▁유시민	-6637
▁장이머	-6638
▁전동차	-6639
▁주도한	-6640
▁주제로	-6641
▁케이블	-6642
▁피아노	-6643
▁활약을	-6644
▁1947	-6645
▁1957	-6646
▁구체적인	-6647
▁독립운동	-6648
▁비틀즈의	-6649
▁영화에서	-6650
▁이미지를	-6651
▁장기하와	-6652
▁발매되었다	-6653
)>	-6654
▁h	-6655
▁걱	-6656
낸다	-6657
다란	-6658
부장	-6659
에른	-6660
왕후	-6661
우치	-6662
종을	-6663
태우	-6664
판이	-6665
one	-6666
▁75	-6667
▁걸린	-6668
▁경주	-6669
▁고도	-6670
▁구상	-6671
▁권고	-6672
▁김동	-6673
▁뉴런	-6674
▁데에	-6675
▁몰래	-6676
▁무산	-6677
▁분자	-6678
▁삶을	-6679
▁소득	-6680
▁연애	-6681
▁옮긴	-6682
▁요미	-6683
▁울산	-6684
▁장을	-6685
▁재위	-6686
▁정기	-6687
▁착륙	-6688
▁토니	-6689
▁혼자	-6690
된다는	-6691
선으로	-6692
▁가지게	-6693
▁가지는	-6694
▁게다가	-6695
▁경찰은	-6696
▁그것이	-6697
▁단순한	-6698
▁들었다	-6699
▁못하게	-6700
▁민간인	-6701
▁방식을	-6702
▁살아남	-6703
▁수도권	-6704
▁아무런	-6705
▁액수는	-6706
▁이어서	-6707
▁장면을	-6708
▁전했다	-6709
▁중국인	-6710
▁직책은	-6711
▁초기에	-6712
▁태어나	-6713
▁하느님	-6714
▁1905	-6715
▁1952	-6716
▁가능하다	-6717
▁국가정보	-6718
▁영향으로	-6719
▁요구하는	-6720
▁전통적인	-6721
▁참여했다	-6722
▁World	-6723
)》	-6724
77	-6725
89	-6726
IC	-6727
▁Q	-6728
▁싫	-6729
▁켄	-6730
▁힌	-6731
로드	-6732
론은	-6733
만한	-6734
미는	-6735
법인	-6736
병의	-6737
심의	-6738
월의	-6739
유는	-6740
이면	-6741
정당	-6742
총독	-6743
행위	-6744
▁II	-6745
▁개방	-6746
▁고립	-6747
▁공전	-6748
▁교류	-6749
▁년에	-6750
▁덕혜	-6751
▁보아	-6752
▁수십	-6753
▁스파	-6754
▁야당	-6755
▁연말	-6756
▁영원	-6757
▁유입	-6758
▁이룬	-6759
▁인지	-6760
▁장치	-6761
▁점이	-6762
▁지불	-6763
▁프롤	-6764
▁현지	-6765
▁호남	-6766
까지의	-6767
나마타	-6768
되는데	-6769
았으나	-6770
정책을	-6771
즈에서	-6772
학자는	-6773
▁그녀가	-6774
▁근거로	-6775
▁나누어	-6776
▁네티즌	-6777
▁맨해튼	-6778
▁방안을	-6779
▁보여준	-6780
▁보위의	-6781
▁시위를	-6782
▁운동에	-6783
▁의원의	-6784
▁총학생	-6785
▁행위를	-6786
위원회의	-6787
전문학교	-6788
투아니아	-6789
▁1938	-6790
▁박근혜의	-6791
▁변희재가	-6792
▁비롯하여	-6793
▁선수들이	-6794
▁않았다고	-6795
▁어머니는	-6796
▁중화민국	-6797
▁총선에서	-6798
▁타이틀을	-6799
TC	-6800
ec	-6801
ew	-6802
▁:	-6803
▁깃	-6804
공동	-6805
대장	-6806
분야	-6807
에르	-6808
역은	-6809
조에	-6810
포로	-6811
프와	-6812
▁구출	-6813
▁그로	-6814
▁노스	-6815
▁두산	-6816
▁배제	-6817
▁부서	-6818
▁부적	-6819
▁샤를	-6820
▁소화	-6821
▁손해	-6822
▁언더	-6823
▁인상	-6824
▁일방	-6825
▁입증	-6826
▁추산	-6827
▁카르	-6828
▁표본	-6829
▁하야	-6830
▁한정	-6831
▁후손	-6832
군으로	-6833
베리아	-6834
원들은	-6835
▁...	-6836
▁드래곤	-6837
▁루이스	-6838
▁바람에	-6839
▁부른다	-6840
▁소리를	-6841
▁없으며	-6842
▁영토를	-6843
▁인간이	-6844
▁일본인	-6845
▁점령한	-6846
▁제안을	-6847
▁추가로	-6848
▁하버드	-6849
▁학자는	-6850
▁한국에	-6851
▁협상을	-6852
위원회가	-6853
▁가리키는	-6854
▁대부분이	-6855
▁에드워드	-6856
▁영향력을	-6857
▁일반상대	-6858
▁좋아하는	-6859
▁지역으로	-6860
▁중화인민공화국	-6861
MF	-6862
▁론	-6863
▁첨	-6864
나게	-6865
내며	-6866
냐는	-6867
디움	-6868
만은	-6869
서울	-6870
실한	-6871
지구	-6872
직에	-6873
질의	-6874
통이	-6875
통일	-6876
학회	-6877
향을	-6878
oll	-6879
▁44	-6880
▁AI	-6881
▁PD	-6882
▁갖춘	-6883
▁기증	-6884
▁동북	-6885
▁들여	-6886
▁로넌	-6887
▁만화	-6888
▁말씀	-6889
▁문서	-6890
▁박동	-6891
▁박탈	-6892
▁상관	-6893
▁스탠	-6894
▁시달	-6895
▁아가	-6896
▁여객	-6897
▁유력	-6898
▁좌우	-6899
▁주전	-6900
▁축소	-6901
▁크루	-6902
▁포지	-6903
▁플래	-6904
▁협박	-6905
▁흰색	-6906
곡으로	-6907
루스는	-6908
사령부	-6909
선수권	-6910
▁검찰은	-6911
▁결과는	-6912
▁경찰이	-6913
▁관련이	-6914
▁끝나고	-6915
▁년인가	-6916
▁당시에	-6917
▁돌아와	-6918
▁말하며	-6919
▁문화재	-6920
▁비판이	-6921
▁상태가	-6922
▁성적은	-6923
▁스토리	-6924
▁인물로	-6925
▁자금을	-6926
▁제목의	-6927
▁질문에	-6928
▁파이어	-6929
▁후보의	-6930
▁1848	-6931
▁Love	-6932
▁그리스도	-6933
▁기록으로	-6934
▁네트워크	-6935
▁명예훼손	-6936
▁어드벤처	-6937
▁비트겐슈타인은	-6938
2,	-6939
▁딤	-6940
각을	-6941
건륭	-6942
대책	-6943
되던	-6944
물에	-6945
별로	-6946
슬레	-6947
유한	-6948
주에	-6949
체로	-6950
치기	-6951
카의	-6952
코의	-6953
티움	-6954
포르	-6955
훈이	-6956
ame	-6957
▁49	-6958
▁경선	-6959
▁권리	-6960
▁김현	-6961
▁대량	-6962
▁대성	-6963
▁대의	-6964
▁동기	-6965
▁무릎	-6966
▁바꾼	-6967
▁백작	-6968
▁벨라	-6969
▁보조	-6970
▁빨리	-6971
▁사기	-6972
▁사단	-6973
▁생기	-6974
▁소위	-6975
▁수소	-6976
▁수술	-6977
▁수요	-6978
▁순치	-6979
▁안타	-6980
▁약간	-6981
▁오딘	-6982
▁워홀	-6983
▁원을	-6984
▁자발	-6985
▁재임	-6986
▁정말	-6987
▁캠프	-6988
▁콜로	-6989
▁특성	-6990
▁하락	-6991
▁학과	-6992
▁해명	-6993
론에서	-6994
았지만	-6995
▁Com	-6996
▁결과로	-6997
▁곳으로	-6998
▁그들을	-6999
▁돌아오	-7000
▁드레퓌	-7001
▁명으로	-7002
▁모델로	-7003
▁모양의	-7004
▁목숨을	-7005
▁사랑을	-7006
▁요구를	-7007
▁이루는	-7008
▁작전을	-7009
▁체결한	-7010
▁체제를	-7011
▁투어를	-7012
▁페리는	-7013
▁폭주족	-7014
▁행성의	-7015
▁1924	-7016
▁5.18	-7017
▁나타내는	-7018
▁당시에는	-7019
▁대표하는	-7020
▁미나마타	-7021
▁보유하고	-7022
▁시작했고	-7023
▁유길준이	-7024
▁작품으로	-7025
》(200	-7026
▁건국대학교	-7027
-4	-7028
32	-7029
IA	-7030
▁떼	-7031
▁룬	-7032
강에	-7033
군단	-7034
께서	-7035
독일	-7036
디스	-7037
민은	-7038
배를	-7039
사르	-7040
석과	-7041
수준	-7042
순이	-7043
열이	-7044
쿠라	-7045
트륨	-7046
판에	-7047
펙트	-7048
현악	-7049
▁고소	-7050
▁공무	-7051
▁국경	-7052
▁금속	-7053
▁네팔	-7054
▁다운	-7055
▁동시	-7056
▁로드	-7057
▁마감	-7058
▁몸을	-7059
▁미터	-7060
▁법무	-7061
▁석방	-7062
▁신호	-7063
▁쓰고	-7064
▁어워	-7065
▁영남	-7066
▁우익	-7067
▁이틀	-7068
▁정비	-7069
▁중시	-7070
▁카운	-7071
▁킬로	-7072
▁팔아	-7073
▁합병	-7074
▁현존	-7075
▁혼합	-7076
▁군사적	-7077
▁디비전	-7078
▁마쓰에	-7079
▁많았다	-7080
▁몇년도	-7081
▁물질은	-7082
▁브루노	-7083
▁사우스	-7084
▁실패한	-7085
▁없었고	-7086
▁운동이	-7087
▁원하는	-7088
▁의견이	-7089
▁이라크	-7090
▁전부터	-7091
▁주장은	-7092
▁하여금	-7093
경기에서	-7094
▁1911	-7095
▁그럼에도	-7096
▁대통령과	-7097
▁대통령에	-7098
▁시작한다	-7099
▁우리나라	-7100
▁운영하는	-7101
▁통합진보	-7102
▁연세대학교	-7103
ak	-7104
▁겹	-7105
그래	-7106
라엘	-7107
무는	-7108
습을	-7109
졌나	-7110
조와	-7111
코는	-7112
타워	-7113
터가	-7114
파와	-7115
페라	-7116
포먼	-7117
300	-7118
ock	-7119
▁Be	-7120
▁EX	-7121
▁가가	-7122
▁게오	-7123
▁놀라	-7124
▁대결	-7125
▁두개	-7126
▁마틴	-7127
▁멸종	-7128
▁법학	-7129
▁분쟁	-7130
▁비잔	-7131
▁삽입	-7132
▁선제	-7133
▁수원	-7134
▁양성	-7135
▁왕국	-7136
▁이회	-7137
▁일상	-7138
▁착수	-7139
▁파병	-7140
▁포획	-7141
보다도	-7142
졌다고	-7143
형으로	-7144
▁KBO	-7145
▁감독을	-7146
▁강원도	-7147
▁결정한	-7148
▁공개한	-7149
▁관계에	-7150
▁꾸준히	-7151
▁당선된	-7152
▁도입한	-7153
▁르네상	-7154
▁무대를	-7155
▁미디어	-7156
▁받았던	-7157
▁보위는	-7158
▁부동산	-7159
▁사상을	-7160
▁시대를	-7161
▁영국과	-7162
▁자리에	-7163
▁작성한	-7164
▁조직을	-7165
▁종교적	-7166
▁지위를	-7167
▁충분한	-7168
▁트로이	-7169
▁포함된	-7170
▁한국과	-7171
▁핵융합	-7172
▁1913	-7173
▁단식투쟁	-7174
▁디자이너	-7175
▁문재인은	-7176
▁분야에서	-7177
▁시리즈의	-7178
▁지지하는	-7179
▁직접적인	-7180
▁허리케인	-7181
▁순천대학교	-7182
▁아우구스투스가	-7183
31	-7184
▁를	-7185
▁잊	-7186
강의	-7187
공을	-7188
기준	-7189
년도	-7190
능력	-7191
든지	-7192
디난	-7193
러리	-7194
로그	-7195
린턴	-7196
뮤직	-7197
보가	-7198
북한	-7199
상황	-7200
아이	-7201
야구	-7202
치며	-7203
터스	-7204
터의	-7205
항은	-7206
orn	-7207
▁52	-7208
▁가문	-7209
▁가슴	-7210
▁고종	-7211
▁길이	-7212
▁끝내	-7213
▁내보	-7214
▁다소	-7215
▁대대	-7216
▁도미	-7217
▁바른	-7218
▁발족	-7219
▁배포	-7220
▁새겨	-7221
▁심사	-7222
▁싶은	-7223
▁어깨	-7224
▁언덕	-7225
▁엔진	-7226
▁적색	-7227
▁진원	-7228
▁철거	-7229
▁쿠바	-7230
▁파르	-7231
▁허가	-7232
▁형사	-7233
나라는	-7234
슬레틱	-7235
환으로	-7236
▁광범위	-7237
▁교향곡	-7238
▁나온다	-7239
▁노력을	-7240
▁손가락	-7241
▁않으며	-7242
▁올라가	-7243
▁왕국의	-7244
▁음악적	-7245
▁주목을	-7246
▁지방의	-7247
▁퍼포먼	-7248
▁행사를	-7249
회의에서	-7250
▁못하였다	-7251
▁시민들이	-7252
▁아키나가	-7253
▁애슬레틱	-7254
▁요미우리	-7255
▁지적했다	-7256
▁형식으로	-7257
Ch	-7258
▁갯	-7259
▁꼭	-7260
▁맛	-7261
▁쟁	-7262
▁햇	-7263
▁흩	-7264
구치	-7265
니에	-7266
등이	-7267
만여	-7268
부문	-7269
생이	-7270
수표	-7271
여성	-7272
우드	-7273
주식	-7274
집의	-7275
타와	-7276
ood	-7277
rit	-7278
▁48	-7279
▁54	-7280
▁가필	-7281
▁거친	-7282
▁계몽	-7283
▁기재	-7284
▁기하	-7285
▁내륙	-7286
▁당일	-7287
▁대처	-7288
▁도요	-7289
▁따로	-7290
▁마케	-7291
▁무력	-7292
▁미친	-7293
▁법을	-7294
▁수축	-7295
▁심장	-7296
▁여운	-7297
▁역설	-7298
▁예능	-7299
▁옷을	-7300
▁유학	-7301
▁의식	-7302
▁장의	-7303
▁제네	-7304
▁조국	-7305
▁종사	-7306
▁중부	-7307
▁진격	-7308
▁채용	-7309
▁치명	-7310
▁포격	-7311
▁회전	-7312
법으로	-7313
심에서	-7314
프랑스	-7315
하이머	-7316
▁누구에	-7317
▁능력이	-7318
▁단체의	-7319
▁사상은	-7320
▁사이트	-7321
▁선언한	-7322
▁소속된	-7323
▁스페셜	-7324
▁역사가	-7325
▁요청한	-7326
▁의혹이	-7327
▁이익을	-7328
▁하기도	-7329
▁했다는	-7330
▁홈페이	-7331
▁후에도	-7332
▁1925	-7333
▁1932	-7334
▁김보름이	-7335
▁목탁수구	-7336
▁생각한다	-7337
▁이외에도	-7338
▁이용하는	-7339
▁정규앨범	-7340
▁조지아의	-7341
▁결승전에서	-7342
▁대통령에게	-7343
▁챔피언스리그	-7344
57	-7345
ik	-7346
▁쇄	-7347
▁앓	-7348
▁웅	-7349
▁콩	-7350
▁템	-7351
같이	-7352
기획	-7353
다니	-7354
번이	-7355
벌레	-7356
비히	-7357
스러	-7358
양을	-7359
이후	-7360
체와	-7361
파에	-7362
평화	-7363
피가	-7364
하마	-7365
행이	-7366
▁46	-7367
▁Bl	-7368
▁IR	-7369
▁Sh	-7370
▁거론	-7371
▁거행	-7372
▁고수	-7373
▁공약	-7374
▁구글	-7375
▁구멍	-7376
▁구사	-7377
▁동해	-7378
▁멈추	-7379
▁모험	-7380
▁못할	-7381
▁발레	-7382
▁산다	-7383
▁순수	-7384
▁신고	-7385
▁쏟아	-7386
▁아크	-7387
▁운용	-7388
▁재료	-7389
▁좋지	-7390
▁주력	-7391
▁중순	-7392
▁지낸	-7393
▁찾는	-7394
▁트레	-7395
▁핵무	-7396
▁향한	-7397
▁혐오	-7398
▁호족	-7399
광역시	-7400
브리지	-7401
▁것이고	-7402
▁길이는	-7403
▁대회를	-7404
▁덕혜옹	-7405
▁데뷔를	-7406
▁독특한	-7407
▁들어와	-7408
▁머리를	-7409
▁베일은	-7410
▁사진을	-7411
▁선보인	-7412
▁지진이	-7413
▁진출한	-7414
▁태도를	-7415
▁평했다	-7416
▁훌륭한	-7417
▁1926	-7418
▁나라에서	-7419
▁매스스타	-7420
▁박정희는	-7421
▁베네치아	-7422
▁비판했다	-7423
▁않는다는	-7424
▁어머니가	-7425
▁여우주연	-7426
▁하였는데	-7427
▁대통령으로	-7428
▁발견되었다	-7429
54	-7430
88	-7431
▁딴	-7432
라와	-7433
머리	-7434
안보	-7435
왔고	-7436
자연	-7437
집을	-7438
철이	-7439
청은	-7440
측은	-7441
카트	-7442
행정	-7443
ial	-7444
iss	-7445
▁Pr	-7446
▁걸친	-7447
▁그랑	-7448
▁극단	-7449
▁김태	-7450
▁느꼈	-7451
▁대책	-7452
▁때도	-7453
▁룬트	-7454
▁리드	-7455
▁몇개	-7456
▁목격	-7457
▁목록	-7458
▁박영	-7459
▁발라	-7460
▁밝은	-7461
▁버전	-7462
▁본토	-7463
▁분산	-7464
▁붙잡	-7465
▁슬램	-7466
▁시트	-7467
▁아빠	-7468
▁예방	-7469
▁완전	-7470
▁음원	-7471
▁의학	-7472
▁이마	-7473
▁임진	-7474
▁전송	-7475
▁조이	-7476
▁주재	-7477
▁죽인	-7478
▁진급	-7479
▁코너	-7480
▁터커	-7481
▁퍼져	-7482
▁해병	-7483
▁해적	-7484
▁향상	-7485
▁협회	-7486
당에서	-7487
렸으며	-7488
이트를	-7489
▁170	-7490
▁남겼다	-7491
▁도움이	-7492
▁분야는	-7493
▁상태에	-7494
▁세계에	-7495
▁세력은	-7496
▁소송을	-7497
▁실험을	-7498
▁않도록	-7499
▁영화를	-7500
▁일부를	-7501
▁자유를	-7502
▁전투를	-7503
▁정도가	-7504
▁중국이	-7505
▁지역이	-7506
▁쪽으로	-7507
▁커다란	-7508
▁항공기	-7509
▁1912	-7510
▁대학교의	-7511
▁룬트슈테	-7512
▁리그에서	-7513
▁마이크로	-7514
▁아니라고	-7515
▁않았지만	-7516
▁어느나라	-7517
▁옹정제는	-7518
▁이스라엘	-7519
▁페르디난	-7520
▁사용되었다	-7521
▁서울특별시	-7522
▁성공적으로	-7523
▁빗	-7524
▁컸	-7525
갔고	-7526
교가	-7527
났고	-7528
놓고	-7529
로써	-7530
선언	-7531
시즘	-7532
악의	-7533
에이	-7534
왕이	-7535
줬다	-7536
지능	-7537
질은	-7538
차에	-7539
타임	-7540
팀의	-7541
▁UN	-7542
▁Un	-7543
▁간부	-7544
▁걸려	-7545
▁경전	-7546
▁공수	-7547
▁광해	-7548
▁넣은	-7549
▁동반	-7550
▁뚜렷	-7551
▁레벨	-7552
▁말해	-7553
▁모른	-7554
▁물을	-7555
▁반기	-7556
▁벗어	-7557
▁세웠	-7558
▁수백	-7559
▁양의	-7560
▁연설	-7561
▁웹툰	-7562
▁이디	-7563
▁이웃	-7564
▁주에	-7565
▁중지	-7566
▁찍은	-7567
▁차이	-7568
▁찾기	-7569
▁청문	-7570
▁체육	-7571
▁충청	-7572
▁측근	-7573
▁커뮤	-7574
▁통화	-7575
▁학자	-7576
▁합리	-7577
▁화물	-7578
기에는	-7579
라고도	-7580
마니아	-7581
▁160	-7582
▁개수는	-7583
▁국가가	-7584
▁높이는	-7585
▁데이브	-7586
▁덴마크	-7587
▁로타르	-7588
▁무대에	-7589
▁박보검	-7590
▁밖으로	-7591
▁샘프러	-7592
▁스프링	-7593
▁시리아	-7594
▁언론에	-7595
▁얼마의	-7596
▁연평도	-7597
▁영국이	-7598
▁우승한	-7599
▁이처럼	-7600
▁일인가	-7601
▁있으면	-7602
▁중이던	-7603
▁지휘관	-7604
▁처음에	-7605
▁페리의	-7606
▁펼쳤다	-7607
▁학교의	-7608
▁후보를	-7609
▁1917	-7610
▁1975	-7611
▁바이에른	-7612
▁사용하고	-7613
▁세계대전	-7614
▁올림픽을	-7615
▁시뮬레이션	-7616
▁프로그램의	-7617
98	-7618
VD	-7619
ax	-7620
ug	-7621
▁→	-7622
▁닌	-7623
▁덜	-7624
동에	-7625
런스	-7626
린이	-7627
범죄	-7628
보호	-7629
브란	-7630
사실	-7631
슨과	-7632
신한	-7633
신혜	-7634
오로	-7635
왔던	-7636
용의	-7637
음에	-7638
정상	-7639
조건	-7640
차별	-7641
참모	-7642
파로	-7643
함은	-7644
희가	-7645
▁53	-7646
▁56	-7647
▁가경	-7648
▁가난	-7649
▁규제	-7650
▁노부	-7651
▁뒤로	-7652
▁베니	-7653
▁병력	-7654
▁사로	-7655
▁성명	-7656
▁셋째	-7657
▁송혜	-7658
▁유고	-7659
▁인류	-7660
▁일찍	-7661
▁준우	-7662
▁찬성	-7663
▁청계	-7664
▁체류	-7665
▁크리	-7666
▁필수	-7667
▁후인	-7668
때문에	-7669
루스가	-7670
위에서	-7671
▁게임을	-7672
▁관계는	-7673
▁교수의	-7674
▁구스타	-7675
▁도시를	-7676
▁된다는	-7677
▁또다시	-7678
▁받는다	-7679
▁베이스	-7680
▁병력을	-7681
▁수사를	-7682
▁쓰이는	-7683
▁여자친	-7684
▁연구는	-7685
▁장관은	-7686
▁정권의	-7687
▁트랜스	-7688
▁풍부한	-7689
▁한국을	-7690
▁형태는	-7691
▁화제가	-7692
▁후지와	-7693
슈타인은	-7694
▁1933	-7695
▁Girl	-7696
▁덧붙였다	-7697
▁되었다고	-7698
▁소프트웨	-7699
▁오늘날의	-7700
▁이어졌다	-7701
▁이후에도	-7702
▁장기하는	-7703
▁라부아지에는	-7704
51	-7705
▁겐	-7706
▁닮	-7707
검찰	-7708
공산	-7709
로나	-7710
마인	-7711
방의	-7712
생물	-7713
액의	-7714
유를	-7715
이션	-7716
장관	-7717
전기	-7718
절을	-7719
천년	-7720
추어	-7721
태후	-7722
택을	-7723
할때	-7724
형에	-7725
▁41	-7726
▁개별	-7727
▁걸어	-7728
▁경비	-7729
▁공헌	-7730
▁기습	-7731
▁김아	-7732
▁맞춰	-7733
▁매출	-7734
▁먹는	-7735
▁발의	-7736
▁부드	-7737
▁부친	-7738
▁상실	-7739
▁선두	-7740
▁수의	-7741
▁스키	-7742
▁쓰러	-7743
▁어두	-7744
▁엠마	-7745
▁연맹	-7746
▁외환	-7747
▁왼쪽	-7748
▁일에	-7749
▁진실	-7750
▁청약	-7751
▁테이	-7752
▁텍사	-7753
▁투구	-7754
▁특전	-7755
▁파라	-7756
▁화석	-7757
▁화성	-7758
▁힘이	-7759
되거나	-7760
르시엘	-7761
시리즈	-7762
위까지	-7763
자동차	-7764
장에게	-7765
▁(20	-7766
▁계획은	-7767
▁그녀를	-7768
▁대학은	-7769
▁되기도	-7770
▁들어오	-7771
▁상대는	-7772
▁속도를	-7773
▁이루고	-7774
▁일으켜	-7775
▁정치를	-7776
▁주계열	-7777
▁큰고래	-7778
▁한국어	-7779
▁행성이	-7780
》(19	-7781
》(20	-7782
했습니까	-7783
▁(200	-7784
▁1922	-7785
▁노무현이	-7786
▁들어갔다	-7787
▁선보였다	-7788
▁시작하여	-7789
▁하나님의	-7790
▁하인리히	-7791
르시엘라고	-7792
▁최종적으로	-7793
▁크리스토퍼	-7794
ib	-7795
▁윔	-7796
▁핸	-7797
곡이	-7798
끼리	-7799
대강	-7800
르카	-7801
말을	-7802
방에	-7803
법원	-7804
브라	-7805
빈이	-7806
오브	-7807
자책	-7808
족을	-7809
ace	-7810
her	-7811
▁64	-7812
▁PA	-7813
▁Te	-7814
▁계통	-7815
▁공략	-7816
▁관할	-7817
▁노바	-7818
▁단층	-7819
▁대동	-7820
▁들은	-7821
▁등재	-7822
▁로즈	-7823
▁리플	-7824
▁반도	-7825
▁번식	-7826
▁보니	-7827
▁부흥	-7828
▁산화	-7829
▁선진	-7830
▁소멸	-7831
▁시마	-7832
▁애플	-7833
▁양도	-7834
▁양유	-7835
▁어릴	-7836
▁이경	-7837
▁이인	-7838
▁자격	-7839
▁잠재	-7840
▁장소	-7841
▁전날	-7842
▁점은	-7843
▁조회	-7844
▁죽이	-7845
▁참고	-7846
▁첫째	-7847
▁코치	-7848
▁해임	-7849
▁화가	-7850
▁환영	-7851
들에서	-7852
면으로	-7853
안으로	-7854
이라도	-7855
치면서	-7856
ream	-7857
▁700	-7858
▁for	-7859
▁거부한	-7860
▁그동안	-7861
▁그래미	-7862
▁급격히	-7863
▁내부의	-7864
▁무기를	-7865
▁물리학	-7866
▁서울시	-7867
▁식으로	-7868
▁아니고	-7869
▁아들인	-7870
▁아이디	-7871
▁아이템	-7872
▁업적을	-7873
▁의사소	-7874
▁의지를	-7875
▁이름의	-7876
▁집에서	-7877
▁타이거	-7878
▁타임스	-7879
▁특유의	-7880
▁폴링은	-7881
▁현상은	-7882
위원회는	-7883
이었다고	-7884
▁Tour	-7885
▁결정적인	-7886
▁그러므로	-7887
▁그리스의	-7888
▁긍정적인	-7889
▁노무현의	-7890
▁박보영이	-7891
▁상호작용	-7892
▁서울에서	-7893
▁세계적인	-7894
▁유럽에서	-7895
▁자신에게	-7896
▁전두환은	-7897
▁디스플레이	-7898
▁원더걸스의	-7899
▁무르시엘라고	-7900
84	-7901
ER	-7902
ue	-7903
군사	-7904
대사	-7905
라클	-7906
란을	-7907
비와	-7908
석에	-7909
아야	-7910
았을	-7911
얼리	-7912
오스	-7913
전자	-7914
접한	-7915
조로	-7916
중국	-7917
터는	-7918
편의	-7919
학이	-7920
훈은	-7921
ick	-7922
▁SA	-7923
▁게재	-7924
▁곳을	-7925
▁구현	-7926
▁남녀	-7927
▁느껴	-7928
▁동양	-7929
▁떠올	-7930
▁라마	-7931
▁레논	-7932
▁문헌	-7933
▁섬의	-7934
▁수능	-7935
▁양은	-7936
▁엑스	-7937
▁엘리	-7938
▁영혼	-7939
▁유격	-7940
▁잡은	-7941
▁장성	-7942
▁전속	-7943
▁정교	-7944
▁지카	-7945
▁코르	-7946
▁쾌속	-7947
▁폭행	-7948
▁해상	-7949
▁후지	-7950
▁군대가	-7951
▁노래의	-7952
▁뉴욕의	-7953
▁데리고	-7954
▁별다른	-7955
▁선출된	-7956
▁소수의	-7957
▁시즌의	-7958
▁시즌이	-7959
▁십자군	-7960
▁쏘나타	-7961
▁않지만	-7962
▁열었다	-7963
▁이적한	-7964
▁임무를	-7965
▁자료를	-7966
▁제출한	-7967
▁조약을	-7968
▁촛불집	-7969
▁출시된	-7970
▁판매량	-7971
▁페스티	-7972
▁프리미	-7973
▁횟수는	-7974
▁1908	-7975
▁1914	-7976
▁1921	-7977
▁나타난다	-7978
▁드라마의	-7979
▁부분에서	-7980
▁부상으로	-7981
▁스마트폰	-7982
▁인터뷰를	-7983
▁평균자책	-7984
▁한국전쟁	-7985
▁엘리자베스	-7986
67	-7987
St	-7988
hy	-7989
io	-7990
iz	-7991
▁냈	-7992
▁랑	-7993
▁험	-7994
교원	-7995
그러	-7996
로우	-7997
받지	-7998
소속	-7999
었기	-8000
우트	-8001
칸센	-8002
토르	-8003
평론	-8004
폭력	-8005
▁개조	-8006
▁겨우	-8007
▁고고	-8008
▁국군	-8009
▁김지	-8010
▁누군	-8011
▁들이	-8012
▁레드	-8013
▁몰려	-8014
▁박태	-8015
▁보관	-8016
▁북경	-8017
▁삼은	-8018
▁소환	-8019
▁않기	-8020
▁워너	-8021
▁자식	-8022
▁저격	-8023
▁전남	-8024
▁전망	-8025
▁정차	-8026
▁제의	-8027
▁종류	-8028
▁죽을	-8029
▁지연	-8030
▁친일	-8031
▁크고	-8032
▁크다	-8033
▁트래	-8034
▁포드	-8035
▁포의	-8036
▁하위	-8037
▁했을	-8038
계약을	-8039
금으로	-8040
까지도	-8041
단에서	-8042
대학원	-8043
서에서	-8044
성에서	-8045
인들을	-8046
주의와	-8047
학년도	-8048
▁Con	-8049
▁강제로	-8050
▁거리를	-8051
▁게임은	-8052
▁결과가	-8053
▁경험이	-8054
▁교수가	-8055
▁부모님	-8056
▁설치된	-8057
▁손해배	-8058
▁여성이	-8059
▁이산화	-8060
▁인구는	-8061
▁잘못된	-8062
▁전투가	-8063
▁조용필	-8064
▁중심이	-8065
▁찾아가	-8066
▁특정한	-8067
▁프톨레	-8068
▁훈련을	-8069
▁5·18	-8070
▁노르웨이	-8071
▁드러났다	-8072
▁상징하는	-8073
▁여러가지	-8074
▁웹사이트	-8075
▁칼리스토	-8076
▁히틀러가	-8077
▁발매하였다	-8078
▁언제인가요	-8079
▁콘스탄티노	-8080
65	-8081
EC	-8082
IT	-8083
’,	-8084
▁갇	-8085
▁닛	-8086
▁봤	-8087
▁틸	-8088
뉴스	-8089
대문	-8090
등한	-8091
렸나	-8092
루가	-8093
메랄	-8094
바흐	-8095
보이	-8096
산의	-8097
신과	-8098
저장	-8099
졌을	-8100
지마	-8101
케라	-8102
큰롤	-8103
퍼거	-8104
형과	-8105
ise	-8106
▁72	-8107
▁거뒀	-8108
▁경매	-8109
▁공감	-8110
▁기생	-8111
▁김광	-8112
▁나의	-8113
▁다녔	-8114
▁대장	-8115
▁뒤인	-8116
▁뜻의	-8117
▁마찰	-8118
▁맡게	-8119
▁맺고	-8120
▁배상	-8121
▁별로	-8122
▁볼턴	-8123
▁비가	-8124
▁삶의	-8125
▁삼아	-8126
▁생태	-8127
▁심한	-8128
▁야생	-8129
▁영양	-8130
▁예언	-8131
▁유저	-8132
▁입문	-8133
▁전직	-8134
▁종로	-8135
▁종의	-8136
▁진단	-8137
▁추대	-8138
▁취급	-8139
▁코스	-8140
▁태극	-8141
▁포털	-8142
▁화장	-8143
▁흥선	-8144
기록을	-8145
들과의	-8146
병으로	-8147
세에게	-8148
프라이	-8149
했었다	-8150
▁Mar	-8151
▁게르만	-8152
▁군사를	-8153
▁나트륨	-8154
▁두려워	-8155
▁라이온	-8156
▁로트너	-8157
▁리스트	-8158
▁묘호를	-8159
▁미치는	-8160
▁박신혜	-8161
▁받기도	-8162
▁보내는	-8163
▁신칸센	-8164
▁연방의	-8165
▁윤잉을	-8166
▁의식을	-8167
▁인구의	-8168
▁집으로	-8169
▁필요로	-8170
▁황제로	-8171
▁후반에	-8172
▁1897	-8173
▁가능하게	-8174
▁공동으로	-8175
▁바이러스	-8176
▁이르렀다	-8177
▁이어지는	-8178
▁주장한다	-8179
▁차지하고	-8180
▁판매량을	-8181
▁포함하여	-8182
▁프랑스가	-8183
▁후쿠시마	-8184
▁누구입니까	-8185
▁플레이어가	-8186
▁프로그램에서	-8187
▁비트겐슈타인이	-8188
96	-8189
IN	-8190
▁/	-8191
가요	-8192
고에	-8193
과도	-8194
랑은	-8195
르를	-8196
리노	-8197
밀리	-8198
사리	-8199
수용	-8200
운트	-8201
족은	-8202
주와	-8203
청문	-8204
츠의	-8205
측이	-8206
키아	-8207
타가	-8208
ith	-8209
▁가와	-8210
▁곳의	-8211
▁공직	-8212
▁기름	-8213
▁넣어	-8214
▁노비	-8215
▁당해	-8216
▁땅을	-8217
▁백제	-8218
▁부과	-8219
▁북서	-8220
▁사다	-8221
▁쉬운	-8222
▁스쿨	-8223
▁실망	-8224
▁실천	-8225
▁쓰여	-8226
▁안무	-8227
▁원소	-8228
▁유발	-8229
▁유배	-8230
▁의뢰	-8231
▁의장	-8232
▁의지	-8233
▁이수	-8234
▁자세	-8235
▁장학	-8236
▁저널	-8237
▁존중	-8238
▁지질	-8239
▁토벌	-8240
▁편의	-8241
▁펼쳤	-8242
▁포가	-8243
▁피트	-8244
▁하우	-8245
▁흔들	-8246
경기에	-8247
당으로	-8248
분으로	-8249
시킨다	-8250
중에서	-8251
지역의	-8252
체에서	-8253
파이어	-8254
▁가수로	-8255
▁개인가	-8256
▁걸그룹	-8257
▁결혼을	-8258
▁경우에	-8259
▁경험을	-8260
▁계획이	-8261
▁곡으로	-8262
▁과거의	-8263
▁담당한	-8264
▁대체로	-8265
▁로큰롤	-8266
▁말하고	-8267
▁묘사한	-8268
▁베리가	-8269
▁선수를	-8270
▁안으로	-8271
▁양유찬	-8272
▁여부를	-8273
▁웨일스	-8274
▁이외에	-8275
▁자체를	-8276
▁충격을	-8277
▁토대로	-8278
▁표현한	-8279
▁핀란드	-8280
과학기술	-8281
▁1916	-8282
▁김연아는	-8283
▁남쪽으로	-8284
▁대선에서	-8285
▁도움으로	-8286
▁돌아갔다	-8287
▁인공지능	-8288
▁일으켰다	-8289
▁일으키는	-8290
▁프로듀싱	-8291
드스케이팅	-8292
▁프톨레마이	-8293
▁베이비복스의	-8294
▁뚫	-8295
▁밸	-8296
▁펠	-8297
기인	-8298
느러	-8299
단히	-8300
림이	-8301
몬드	-8302
미로	-8303
미와	-8304
수도	-8305
인인	-8306
제한	-8307
족이	-8308
차트	-8309
처는	-8310
천여	-8311
층에	-8312
치와	-8313
키지	-8314
(17	-8315
SPM	-8316
ate	-8317
rom	-8318
▁SN	-8319
▁가네	-8320
▁갤리	-8321
▁곳곳	-8322
▁노트	-8323
▁대조	-8324
▁독점	-8325
▁명백	-8326
▁물어	-8327
▁미시	-8328
▁보완	-8329
▁붙인	-8330
▁사육	-8331
▁서해	-8332
▁스틸	-8333
▁승강	-8334
▁시칠	-8335
▁에인	-8336
▁에클	-8337
▁오는	-8338
▁위기	-8339
▁이토	-8340
▁일로	-8341
▁자라	-8342
▁적대	-8343
▁책봉	-8344
▁취재	-8345
▁편찬	-8346
▁평을	-8347
▁피의	-8348
▁학사	-8349
▁홍가	-8350
▁화폐	-8351
▁후안	-8352
겼는가	-8353
베르트	-8354
시스템	-8355
시켰고	-8356
자였던	-8357
지는가	-8358
회의를	-8359
ance	-8360
▁800	-8361
▁One	-8362
▁곧바로	-8363
▁기간에	-8364
▁기사를	-8365
▁다르다	-8366
▁대상은	-8367
▁들어온	-8368
▁때마다	-8369
▁반대한	-8370
▁북한은	-8371
▁세금을	-8372
▁소규모	-8373
▁언어는	-8374
▁영화로	-8375
▁이유를	-8376
▁일정한	-8377
▁있다면	-8378
▁전체를	-8379
▁정당이	-8380
▁정부와	-8381
▁주요한	-8382
▁지시한	-8383
▁진출을	-8384
▁참석한	-8385
▁팬들이	-8386
▁포함해	-8387
▁하와이	-8388
▁할아버	-8389
▁현상이	-8390
사우루스	-8391
스부르크	-8392
이라고도	-8393
인들에게	-8394
▁1934	-8395
▁마르크스	-8396
▁생각하는	-8397
▁아스퍼거	-8398
▁않았으며	-8399
▁올림픽이	-8400
▁이효리가	-8401
▁자유한국	-8402
▁크리스마	-8403
▁페스티벌	-8404
▁이탈리아의	-8405
▁참여하였다	-8406
▁옥타비아누스는	-8407
81	-8408
SA	-8409
az	-8410
▁?	-8411
▁낼	-8412
▁락	-8413
▁쌀	-8414
금이	-8415
기지	-8416
나카	-8417
내가	-8418
련의	-8419
마일	-8420
목의	-8421
서양	-8422
숙한	-8423
업에	-8424
영과	-8425
일간	-8426
임은	-8427
자원	-8428
체제	-8429
프란	-8430
항이	-8431
해준	-8432
ory	-8433
▁4,	-8434
▁59	-8435
▁My	-8436
▁Sp	-8437
▁고통	-8438
▁구제	-8439
▁당원	-8440
▁대외	-8441
▁동작	-8442
▁되찾	-8443
▁두드	-8444
▁드물	-8445
▁로맨	-8446
▁리차	-8447
▁말할	-8448
▁매장	-8449
▁모인	-8450
▁바둑	-8451
▁빠진	-8452
▁사막	-8453
▁샤이	-8454
▁서독	-8455
▁소지	-8456
▁수리	-8457
▁수습	-8458
▁숭배	-8459
▁약화	-8460
▁어뢰	-8461
▁오로	-8462
▁요코	-8463
▁유효	-8464
▁육상	-8465
▁음모	-8466
▁전향	-8467
▁좌파	-8468
▁주축	-8469
▁체제	-8470
▁초에	-8471
▁패한	-8472
▁펜실	-8473
▁폴리	-8474
▁해주	-8475
라이브	-8476
시스코	-8477
안에서	-8478
하여야	-8479
▁EXO	-8480
▁공산당	-8481
▁대화를	-8482
▁도끼가	-8483
▁드루킹	-8484
▁목적은	-8485
▁방송을	-8486
▁벌였다	-8487
▁베드로	-8488
▁수록된	-8489
▁시드니	-8490
▁시절에	-8491
▁여동생	-8492
▁열차가	-8493
▁영국은	-8494
▁오프닝	-8495
▁음악은	-8496
▁인물이	-8497
▁적어도	-8498
▁정당의	-8499
▁조사한	-8500
▁존재를	-8501
▁중국에	-8502
▁진정한	-8503
▁추진한	-8504
▁충돌구	-8505
▁하나가	-8506
▁확실히	-8507
이었는데	-8508
하였다는	-8509
▁1951	-8510
▁공식적인	-8511
▁대부분을	-8512
▁배경으로	-8513
▁차원에서	-8514
▁콘서트를	-8515
")	-8516
59	-8517
Re	-8518
ly	-8519
ty	-8520
▁뉘	-8521
▁콰	-8522
▁큐	-8523
가수	-8524
기갑	-8525
대륙	-8526
데르	-8527
러를	-8528
렸을	-8529
루미	-8530
리다	-8531
성도	-8532
송을	-8533
질로	-8534
net	-8535
ort	-8536
▁65	-8537
▁간접	-8538
▁개척	-8539
▁객관	-8540
▁결코	-8541
▁경호	-8542
▁기회	-8543
▁김택	-8544
▁끊임	-8545
▁나눠	-8546
▁단백	-8547
▁대로	-8548
▁동참	-8549
▁래퍼	-8550
▁링고	-8551
▁맞게	-8552
▁매각	-8553
▁몸에	-8554
▁복합	-8555
▁사제	-8556
▁상상	-8557
▁액션	-8558
▁여신	-8559
▁연루	-8560
▁오노	-8561
▁외무	-8562
▁입원	-8563
▁잡고	-8564
▁철회	-8565
▁촉진	-8566
▁카디	-8567
▁카툰	-8568
▁표창	-8569
▁합법	-8570
동으로	-8571
드라마	-8572
래스카	-8573
리지널	-8574
적이며	-8575
졌지만	-8576
펙트럼	-8577
▁140	-8578
▁거리는	-8579
▁궤도를	-8580
▁그룹은	-8581
▁노선을	-8582
▁노태우	-8583
▁달러의	-8584
▁독일이	-8585
▁둘러싼	-8586
▁라이블	-8587
▁매카트	-8588
▁무거운	-8589
▁받았나	-8590
▁방법이	-8591
▁보유한	-8592
▁북한에	-8593
▁사용을	-8594
▁스톤이	-8595
▁실패로	-8596
▁싱글은	-8597
▁업무를	-8598
▁원로원	-8599
▁위치에	-8600
▁유고슬	-8601
▁의화단	-8602
▁일종의	-8603
▁제작된	-8604
▁제주도	-8605
▁종교의	-8606
▁주연을	-8607
▁지나지	-8608
▁차이를	-8609
▁컨트리	-8610
▁폼페이	-8611
▁학위를	-8612
▁한국은	-8613
대회에서	-8614
▁1907	-8615
▁공격하는	-8616
▁담당하는	-8617
▁레닌그라	-8618
▁바이올린	-8619
▁아니었다	-8620
▁올림픽에	-8621
▁의미한다	-8622
▁주장하며	-8623
▁지나치게	-8624
▁프랑스와	-8625
▁필요하다	-8626
▁보여주었다	-8627
▁수상하였다	-8628
▁알렉시우스	-8629
▁엔터테인먼	-8630
▁제기되었다	-8631
97	-8632
?"	-8633
ON	-8634
VP	-8635
ix	-8636
▁굉	-8637
▁짝	-8638
▁첩	-8639
건설	-8640
공개	-8641
금지	-8642
드르	-8643
득점	-8644
등의	-8645
디는	-8646
라브	-8647
래의	-8648
마로	-8649
무스	-8650
부인	-8651
빌리	-8652
심은	-8653
입어	-8654
지휘	-8655
진에	-8656
코스	-8657
테르	-8658
톤의	-8659
필드	-8660
하가	-8661
히고	-8662
age	-8663
ica	-8664
~19	-8665
▁51	-8666
▁66	-8667
▁CD	-8668
▁걱정	-8669
▁고민	-8670
▁공장	-8671
▁뉴질	-8672
▁들면	-8673
▁마돈	-8674
▁매매	-8675
▁먹고	-8676
▁모방	-8677
▁바닥	-8678
▁사절	-8679
▁서구	-8680
▁선배	-8681
▁속도	-8682
▁쇠퇴	-8683
▁수색	-8684
▁신이	-8685
▁아테	-8686
▁앤디	-8687
▁에런	-8688
▁와일	-8689
▁잃은	-8690
▁입을	-8691
▁장식	-8692
▁전성	-8693
▁전용	-8694
▁조기	-8695
▁종결	-8696
▁종이	-8697
▁준공	-8698
▁체코	-8699
▁카드	-8700
▁케임	-8701
▁통틀	-8702
▁통행	-8703
▁피난	-8704
▁필로	-8705
▁향후	-8706
▁흘러	-8707
▁힘든	-8708
생활을	-8709
우스와	-8710
정부의	-8711
종으로	-8712
하였을	-8713
학교를	-8714
ment	-8715
▁IMF	-8716
▁Way	-8717
▁가리온	-8718
▁경기장	-8719
▁경찰의	-8720
▁관련한	-8721
▁군대의	-8722
▁규모는	-8723
▁나섰다	-8724
▁단순히	-8725
▁대상을	-8726
▁로마에	-8727
▁리버풀	-8728
▁못했고	-8729
▁무한도	-8730
▁발전에	-8731
▁보이고	-8732
▁브라이	-8733
▁생각해	-8734
▁소설을	-8735
▁스타일	-8736
▁에라스	-8737
▁완벽한	-8738
▁중국은	-8739
▁출연해	-8740
▁타이완	-8741
▁타일러	-8742
▁피해가	-8743
▁활동이	-8744
공화국의	-8745
위원회를	-8746
크라이나	-8747
▁기록되어	-8748
▁뉴질랜드	-8749
▁민족주의	-8750
▁보헤미아	-8751
▁스타디움	-8752
▁않는다고	-8753
▁위원회는	-8754
▁유길준은	-8755
▁있었다는	-8756
▁출연하여	-8757
▁학자들은	-8758
▁결과적으로	-8759
44	-8760
75	-8761
▁옳	-8762
▁탓	-8763
▁흠	-8764
거를	-8765
곡의	-8766
년은	-8767
능한	-8768
니즘	-8769
니카	-8770
란이	-8771
레가	-8772
려면	-8773
령은	-8774
마자	-8775
말로	-8776
블던	-8777
소수	-8778
수석	-8779
어에	-8780
이사	-8781
인한	-8782
중인	-8783
층이	-8784
쿠버	-8785
타수	-8786
탄의	-8787
풍을	-8788
피의	-8789
현실	-8790
환의	-8791
희의	-8792
▁5,	-8793
▁MC	-8794
▁간에	-8795
▁것의	-8796
▁결론	-8797
▁공업	-8798
▁균형	-8799
▁극찬	-8800
▁김유	-8801
▁나올	-8802
▁담긴	-8803
▁떠오	-8804
▁머무	-8805
▁무관	-8806
▁물이	-8807
▁물품	-8808
▁미드	-8809
▁미세	-8810
▁벤데	-8811
▁보기	-8812
▁본다	-8813
▁사찰	-8814
▁서재	-8815
▁설문	-8816
▁성격	-8817
▁성을	-8818
▁시냅	-8819
▁신학	-8820
▁아웃	-8821
▁약한	-8822
▁얻는	-8823
▁역은	-8824
▁오키	-8825
▁유재	-8826
▁유포	-8827
▁이남	-8828
▁이윤	-8829
▁입대	-8830
▁장수	-8831
▁재미	-8832
▁재현	-8833
▁전리	-8834
▁전위	-8835
▁정밀	-8836
▁정윤	-8837
▁조영	-8838
▁중계	-8839
▁지내	-8840
▁지미	-8841
▁창간	-8842
▁크기	-8843
▁타워	-8844
▁트윈	-8845
▁파워	-8846
▁평소	-8847
▁피츠	-8848
▁행복	-8849
▁헬륨	-8850
▁화재	-8851
▁흡연	-8852
블랜드	-8853
사업을	-8854
워오브	-8855
즈베리	-8856
iver	-8857
▁Pro	-8858
▁가치를	-8859
▁과학의	-8860
▁근대적	-8861
▁덕분에	-8862
▁둘러싸	-8863
▁드러나	-8864
▁문화를	-8865
▁비난을	-8866
▁비평가	-8867
▁살았던	-8868
▁선거를	-8869
▁얼마를	-8870
▁유래한	-8871
▁일본을	-8872
▁입학한	-8873
▁준비를	-8874
▁지상파	-8875
▁최악의	-8876
▁테스트	-8877
▁파견한	-8878
▁학교를	-8879
▁해운대	-8880
▁TSPM	-8881
▁누구일까	-8882
▁독일에서	-8883
▁롯데월드	-8884
▁문재인이	-8885
▁비례대표	-8886
▁에클스턴	-8887
▁연구에서	-8888
▁올림픽의	-8889
▁전형적인	-8890
▁조선일보	-8891
▁아르헨티나	-8892
▁비트겐슈타인의	-8893
(2	-8894
ds	-8895
”(	-8896
▁,	-8897
감사	-8898
건이	-8899
구려	-8900
규칙	-8901
글로	-8902
기능	-8903
너스	-8904
동원	-8905
령의	-8906
루를	-8907
매매	-8908
반의	-8909
병이	-8910
수수	-8911
아리	-8912
역사	-8913
음의	-8914
장교	-8915
준이	-8916
천을	-8917
치오	-8918
키와	-8919
터와	-8920
호에	-8921
희는	-8922
.5%	-8923
ect	-8924
▁Al	-8925
▁Ar	-8926
▁En	-8927
▁가이	-8928
▁강을	-8929
▁견제	-8930
▁고급	-8931
▁군중	-8932
▁그냥	-8933
▁극장	-8934
▁김명	-8935
▁꼬리	-8936
▁디오	-8937
▁말로	-8938
▁맞는	-8939
▁맞지	-8940
▁몇월	-8941
▁모욕	-8942
▁몰락	-8943
▁무덤	-8944
▁문을	-8945
▁밀어	-8946
▁바뀐	-8947
▁본인	-8948
▁부를	-8949
▁북측	-8950
▁성능	-8951
▁수염	-8952
▁숙의	-8953
▁신입	-8954
▁실용	-8955
▁없기	-8956
▁여덟	-8957
▁연고	-8958
▁우수	-8959
▁원세	-8960
▁이다	-8961
▁장원	-8962
▁재혼	-8963
▁전술	-8964
▁접속	-8965
▁정변	-8966
▁제가	-8967
▁조별	-8968
▁중독	-8969
▁지능	-8970
▁지침	-8971
▁착용	-8972
▁포경	-8973
▁화합	-8974
거리는	-8975
났는가	-8976
년동안	-8977
사이드	-8978
이면서	-8979
일본어	-8980
지기도	-8981
치에서	-8982
하겠다	-8983
하므로	-8984
▁검찰이	-8985
▁계기는	-8986
▁기반을	-8987
▁단어를	-8988
▁대회에	-8989
▁동물은	-8990
▁떠났다	-8991
▁뜻으로	-8992
▁부족한	-8993
▁불린다	-8994
▁블라디	-8995
▁비틀즈	-8996
▁뿐이다	-8997
▁사회에	-8998
▁수준의	-8999
▁승무원	-9000
▁우리의	-9001
▁위에서	-9002
▁이미지	-9003
▁이용할	-9004
▁인구가	-9005
▁최대의	-9006
▁특징을	-9007
▁항성의	-9008
▁활동에	-9009
▁힘입어	-9010
▁1894	-9011
▁다음으로	-9012
▁뱅크스가	-9013
▁안철수는	-9014
▁알래스카	-9015
▁암호화폐	-9016
▁에너지를	-9017
▁연속으로	-9018
▁요구했다	-9019
▁은메달을	-9020
▁케플러의	-9021
▁때문이라고	-9022
▁솔라나스가	-9023
▁이루어지는	-9024
▁조선인민군	-9025
▁진행되었다	-9026
▁Single	-9027
▁ladies	-9028
▁single	-9029
2)	-9030
RE	-9031
건의	-9032
구역	-9033
더맨	-9034
려한	-9035
마와	-9036
면의	-9037
민당	-9038
버러	-9039
버린	-9040
영향	-9041
자본	-9042
짜리	-9043
척의	-9044
체인	-9045
타고	-9046
통감	-9047
통제	-9048
팀이	-9049
피는	-9050
환은	-9051
히트	-9052
ire	-9053
▁JT	-9054
▁NH	-9055
▁감금	-9056
▁감행	-9057
▁검색	-9058
▁괴벨	-9059
▁구름	-9060
▁궁극	-9061
▁기구	-9062
▁나아	-9063
▁날개	-9064
▁날아	-9065
▁냈다	-9066
▁다가	-9067
▁다리	-9068
▁대원	-9069
▁바티	-9070
▁반출	-9071
▁병합	-9072
▁보복	-9073
▁손예	-9074
▁수평	-9075
▁승진	-9076
▁싫어	-9077
▁써서	-9078
▁아리	-9079
▁알레	-9080
▁에볼	-9081
▁오가	-9082
▁와서	-9083
▁일자	-9084
▁장비	-9085
▁재생	-9086
▁전압	-9087
▁정동	-9088
▁정일	-9089
▁준다	-9090
▁즉각	-9091
▁직무	-9092
▁진경	-9093
▁최순	-9094
▁추적	-9095
▁통증	-9096
▁팽창	-9097
▁합작	-9098
경찰청	-9099
시대에	-9100
에게도	-9101
▁Sch	-9102
▁강조한	-9103
▁과거에	-9104
▁나이트	-9105
▁된다고	-9106
▁등장인	-9107
▁만나게	-9108
▁만든다	-9109
▁명칭을	-9110
▁미국을	-9111
▁배우로	-9112
▁베일이	-9113
▁부대의	-9114
▁브래드	-9115
▁새천년	-9116
▁언제나	-9117
▁오페라	-9118
▁요청을	-9119
▁유태인	-9120
▁이디야	-9121
▁인류의	-9122
▁있었을	-9123
▁정책에	-9124
▁주변에	-9125
▁죽었다	-9126
▁타격을	-9127
▁특별히	-9128
어드벤처	-9129
▁1936	-9130
▁규정하고	-9131
▁시칠리아	-9132
▁움직이는	-9133
▁원내대표	-9134
▁파이어폭	-9135
▁필요성을	-9136
▁하나이다	-9137
▁흥선대원	-9138
▁가톨릭교회	-9139
▁국가정보원	-9140
▁디스워오브	-9141
▁소녀시대는	-9142
▁월드컵에서	-9143
41	-9144
85	-9145
Th	-9146
▁%	-9147
▁맵	-9148
▁봐	-9149
▁퀘	-9150
▁탱	-9151
겨울	-9152
기아	-9153
도서	-9154
됐고	-9155
둥이	-9156
리니	-9157
린은	-9158
미야	-9159
번을	-9160
속히	-9161
언어	-9162
예프	-9163
유리	-9164
중한	-9165
지던	-9166
지연	-9167
코프	-9168
타바	-9169
타점	-9170
테스	-9171
황을	-9172
-16	-9173
100	-9174
ark	-9175
com	-9176
ens	-9177
▁De	-9178
▁IS	-9179
▁간행	-9180
▁거기	-9181
▁구두	-9182
▁그날	-9183
▁글래	-9184
▁닌텐	-9185
▁다큐	-9186
▁담고	-9187
▁돌연	-9188
▁마녀	-9189
▁막을	-9190
▁면담	-9191
▁무려	-9192
▁무쓰	-9193
▁무용	-9194
▁발홀	-9195
▁배드	-9196
▁번도	-9197
▁비스	-9198
▁세부	-9199
▁셀타	-9200
▁숙청	-9201
▁스캔	-9202
▁시범	-9203
▁신임	-9204
▁어울	-9205
▁억압	-9206
▁오빠	-9207
▁의결	-9208
▁잇는	-9209
▁점성	-9210
▁조석	-9211
▁좁은	-9212
▁청산	-9213
▁축삭	-9214
▁충남	-9215
▁크림	-9216
▁티켓	-9217
▁한중	-9218
▁한화	-9219
공학과	-9220
나갔다	-9221
당하고	-9222
사령관	-9223
페이지	-9224
▁20%	-9225
▁공무원	-9226
▁구성원	-9227
▁늘어나	-9228
▁못한다	-9229
▁미국인	-9230
▁밀라노	-9231
▁법무부	-9232
▁빅토르	-9233
▁사실은	-9234
▁사태가	-9235
▁서서히	-9236
▁서울대	-9237
▁서재필	-9238
▁세포이	-9239
▁시대는	-9240
▁싸우는	-9241
▁쓰나미	-9242
▁아들을	-9243
▁아사미	-9244
▁아이를	-9245
▁압력을	-9246
▁앤드류	-9247
▁언론은	-9248
▁역사를	-9249
▁예술가	-9250
▁작품에	-9251
▁재산을	-9252
▁적절한	-9253
▁전투의	-9254
▁정권이	-9255
▁조정의	-9256
▁주장에	-9257
▁지시를	-9258
▁초기의	-9259
▁출전해	-9260
▁카운티	-9261
▁트럼프	-9262
▁행사는	-9263
▁회장이	-9264
▁1906	-9265
▁결정했다	-9266
▁관계자는	-9267
▁그곳에서	-9268
▁노르베르	-9269
▁몇명인가	-9270
▁부문에서	-9271
▁사망했다	-9272
▁스펙트럼	-9273
▁시즌에서	-9274
▁실제로는	-9275
▁오리지널	-9276
▁움직임을	-9277
▁이야기가	-9278
▁이휘소가	-9279
▁임수혁의	-9280
▁정부에서	-9281
▁참여하여	-9282
▁천문학자	-9283
▁브리트니의	-9284
▁아덴하트는	-9285
▁원더걸스가	-9286
▁클리블랜드	-9287
▁아우구스투스	-9288
▁유고슬라비아	-9289
▁유럽찌르레기의	-9290
ID	-9291
pt	-9292
▁엉	-9293
▁촌	-9294
▁칫	-9295
▁틈	-9296
▁팩	-9297
가에	-9298
것이	-9299
고은	-9300
내의	-9301
더는	-9302
러브	-9303
무역	-9304
박이	-9305
발이	-9306
브르	-9307
블리	-9308
사도	-9309
산염	-9310
세스	-9311
연기	-9312
오늘	-9313
준의	-9314
해에	-9315
호쿠	-9316
act	-9317
ide	-9318
out	-9319
▁He	-9320
▁st	-9321
▁가끔	-9322
▁가득	-9323
▁가시	-9324
▁경남	-9325
▁그들	-9326
▁낳은	-9327
▁느린	-9328
▁달린	-9329
▁대지	-9330
▁데브	-9331
▁막부	-9332
▁먹이	-9333
▁문정	-9334
▁바꿔	-9335
▁배운	-9336
▁복사	-9337
▁북극	-9338
▁북동	-9339
▁브이	-9340
▁상인	-9341
▁수영	-9342
▁숙명	-9343
▁시게	-9344
▁식물	-9345
▁심판	-9346
▁여중	-9347
▁오시	-9348
▁오크	-9349
▁완화	-9350
▁웨이	-9351
▁음력	-9352
▁이룩	-9353
▁이화	-9354
▁일대	-9355
▁장남	-9356
▁전임	-9357
▁조상	-9358
▁집결	-9359
▁창업	-9360
▁찾을	-9361
▁탈환	-9362
▁토너	-9363
▁피부	-9364
갔는가	-9365
것으로	-9366
브란스	-9367
작으로	-9368
제도를	-9369
졌다는	-9370
주에서	-9371
화되어	-9372
▁0.3	-9373
▁DVD	-9374
▁고티에	-9375
▁국방부	-9376
▁근처에	-9377
▁다루는	-9378
▁대학에	-9379
▁도널드	-9380
▁도입된	-9381
▁명성을	-9382
▁밴드의	-9383
▁부르고	-9384
▁브라우	-9385
▁비롯해	-9386
▁성향의	-9387
▁시마네	-9388
▁앞바다	-9389
▁앨범에	-9390
▁열렸다	-9391
▁영향력	-9392
▁위기에	-9393
▁의미가	-9394
▁작전은	-9395
▁적합한	-9396
▁조사에	-9397
▁조직한	-9398
▁주에서	-9399
▁지나친	-9400
▁텍사스	-9401
▁헝가리	-9402
▁혐의를	-9403
▁홍콩의	-9404
시켰는가	-9405
▁1935	-9406
▁SATA	-9407
▁가톨릭교	-9408
▁기록했고	-9409
▁사법시험	-9410
▁손해배상	-9411
▁실패했다	-9412
▁일환으로	-9413
▁자신들이	-9414
▁존재하지	-9415
▁대한민국이	-9416
▁한양대학교	-9417
엔터테인먼트	-9418
▁새정치민주연합	-9419
DP	-9420
ox	-9421
▁벼	-9422
▁쥬	-9423
▁첼	-9424
냈고	-9425
데스	-9426
등록	-9427
로도	-9428
미국	-9429
믹스	-9430
사무	-9431
셰비	-9432
속에	-9433
양이	-9434
오고	-9435
의가	-9436
자고	-9437
족과	-9438
청개	-9439
탄을	-9440
편이	-9441
협력	-9442
ice	-9443
ife	-9444
ism	-9445
▁61	-9446
▁99	-9447
▁EC	-9448
▁가열	-9449
▁가온	-9450
▁간섭	-9451
▁감정	-9452
▁개관	-9453
▁고무	-9454
▁공군	-9455
▁공적	-9456
▁대두	-9457
▁도쿠	-9458
▁등도	-9459
▁라그	-9460
▁만다	-9461
▁맞붙	-9462
▁믿고	-9463
▁박원	-9464
▁비율	-9465
▁비하	-9466
▁상영	-9467
▁소울	-9468
▁송윤	-9469
▁시라	-9470
▁실린	-9471
▁실종	-9472
▁아닥	-9473
▁아트	-9474
▁양국	-9475
▁오다	-9476
▁왕세	-9477
▁유병	-9478
▁유신	-9479
▁의상	-9480
▁이긴	-9481
▁이석	-9482
▁인조	-9483
▁일도	-9484
▁전도	-9485
▁전철	-9486
▁좋다	-9487
▁축적	-9488
▁출석	-9489
▁커피	-9490
▁탑승	-9491
▁풀어	-9492
▁휴대	-9493
▁휴전	-9494
권에서	-9495
능하신	-9496
였다는	-9497
정부가	-9498
회의에	-9499
▁110	-9500
▁MVP	-9501
▁가문의	-9502
▁계약이	-9503
▁기업의	-9504
▁나타내	-9505
▁내세운	-9506
▁달라이	-9507
▁독립협	-9508
▁독일에	-9509
▁두개골	-9510
▁드러머	-9511
▁마스는	-9512
▁만났다	-9513
▁맺었다	-9514
▁메이지	-9515
▁면적은	-9516
▁목표는	-9517
▁밝혀진	-9518
▁서울의	-9519
▁성질을	-9520
▁시즌은	-9521
▁실시된	-9522
▁싱글의	-9523
▁아스널	-9524
▁연합군	-9525
▁영화가	-9526
▁원인을	-9527
▁위치해	-9528
▁윔블던	-9529
▁음식을	-9530
▁음악에	-9531
▁이론에	-9532
▁작곡한	-9533
▁존재가	-9534
▁주변의	-9535
▁토마스	-9536
▁헤라클	-9537
▁형식의	-9538
▁국제공항	-9539
▁년도인가	-9540
▁노무현은	-9541
▁대한제국	-9542
▁사용되고	-9543
▁서비스를	-9544
▁서인영이	-9545
▁아니라는	-9546
▁어머니의	-9547
▁일본으로	-9548
▁있습니다	-9549
▁적극적인	-9550
▁정치적인	-9551
71	-9552
86	-9553
▁딥	-9554
▁샀	-9555
▁슐	-9556
로와	-9557
방위	-9558
보면	-9559
소설	-9560
아웃	-9561
안과	-9562
우로	-9563
위인	-9564
자료	-9565
정변	-9566
제품	-9567
조정	-9568
주기	-9569
지모	-9570
직한	-9571
토를	-9572
투자	-9573
행에	-9574
are	-9575
ind	-9576
ond	-9577
ool	-9578
ose	-9579
▁1/	-9580
▁7,	-9581
▁강도	-9582
▁개량	-9583
▁거대	-9584
▁공정	-9585
▁교과	-9586
▁국어	-9587
▁그라	-9588
▁기갑	-9589
▁나섰	-9590
▁내지	-9591
▁노신	-9592
▁녹색	-9593
▁논리	-9594
▁높다	-9595
▁눈을	-9596
▁동독	-9597
▁레슬	-9598
▁류준	-9599
▁마법	-9600
▁만남	-9601
▁몬테	-9602
▁박지	-9603
▁밤에	-9604
▁변형	-9605
▁보좌	-9606
▁부패	-9607
▁상원	-9608
▁서정	-9609
▁성남	-9610
▁성별	-9611
▁성사	-9612
▁손에	-9613
▁얻고	-9614
▁엄격	-9615
▁여의	-9616
▁예외	-9617
▁왜곡	-9618
▁원반	-9619
▁윤상	-9620
▁음식	-9621
▁이택	-9622
▁임기	-9623
▁자선	-9624
▁재난	-9625
▁점수	-9626
▁종은	-9627
▁주식	-9628
▁지형	-9629
▁진군	-9630
▁진도	-9631
▁차남	-9632
▁총을	-9633
▁총장	-9634
▁클로	-9635
▁퇴각	-9636
▁폐위	-9637
▁해저	-9638
▁헤르	-9639
어에서	-9640
에서만	-9641
파니아	-9642
▁갈등을	-9643
▁공사가	-9644
▁내셔널	-9645
▁달라고	-9646
▁동인도	-9647
▁디트로	-9648
▁라이벌	-9649
▁로스트	-9650
▁마이크	-9651
▁막대한	-9652
▁말레이	-9653
▁부작용	-9654
▁상처를	-9655
▁생겨난	-9656
▁스크린	-9657
▁시티의	-9658
▁어두운	-9659
▁여중생	-9660
▁요소를	-9661
▁윤잉이	-9662
▁은퇴를	-9663
▁이어져	-9664
▁일부가	-9665
▁저서는	-9666
▁정치에	-9667
▁정확히	-9668
▁천문학	-9669
▁치료를	-9670
▁카시니	-9671
선거에서	-9672
화되었다	-9673
▁1895	-9674
▁1901	-9675
▁성공했다	-9676
▁아이스하	-9677
▁아키나는	-9678
▁연결하는	-9679
▁열린우리	-9680
▁오바마가	-9681
▁원인으로	-9682
▁일베저장	-9683
▁일어나고	-9684
▁있으므로	-9685
▁자격으로	-9686
▁정상회담	-9687
▁제공하는	-9688
▁조사에서	-9689
▁디트로이트	-9690
▁시리즈에서	-9691
▁우크라이나	-9692
▁프톨레마이오	-9693
▁옥타비아누스가	-9694
43	-9695
95	-9696
AN	-9697
ff	-9698
▁넷	-9699
▁쿼	-9700
▁훔	-9701
곳은	-9702
궐기	-9703
나로	-9704
늑대	-9705
니치	-9706
달의	-9707
랑이	-9708
루는	-9709
박물	-9710
병은	-9711
보기	-9712
분과	-9713
수학	-9714
업이	-9715
주아	-9716
준표	-9717
차전	-9718
층을	-9719
켰다	-9720
코드	-9721
타로	-9722
플라	-9723
aby	-9724
ohn	-9725
▁42	-9726
▁LP	-9727
▁가솔	-9728
▁결심	-9729
▁공백	-9730
▁공원	-9731
▁금강	-9732
▁깊이	-9733
▁낙하	-9734
▁내고	-9735
▁단행	-9736
▁대만	-9737
▁데모	-9738
▁등급	-9739
▁등번	-9740
▁말의	-9741
▁모순	-9742
▁무사	-9743
▁바닷	-9744
▁바퀴	-9745
▁발굴	-9746
▁배정	-9747
▁부속	-9748
▁사극	-9749
▁사유	-9750
▁삼각	-9751
▁송신	-9752
▁스콜	-9753
▁슬로	-9754
▁신전	-9755
▁아예	-9756
▁아홉	-9757
▁여대	-9758
▁연봉	-9759
▁엽록	-9760
▁이세	-9761
▁일간	-9762
▁일원	-9763
▁입헌	-9764
▁자원	-9765
▁작사	-9766
▁적의	-9767
▁전승	-9768
▁점유	-9769
▁제후	-9770
▁조르	-9771
▁조치	-9772
▁좌절	-9773
▁중추	-9774
▁취약	-9775
▁치른	-9776
▁친선	-9777
▁캠페	-9778
▁파일	-9779
▁포트	-9780
▁해협	-9781
령으로	-9782
산으로	-9783
연구원	-9784
운동의	-9785
포켓몬	-9786
학교에	-9787
▁70%	-9788
▁80%	-9789
▁갈등이	-9790
▁개념은	-9791
▁규모가	-9792
▁기업은	-9793
▁나오지	-9794
▁당했다	-9795
▁대주교	-9796
▁도중에	-9797
▁동영상	-9798
▁목표를	-9799
▁미야기	-9800
▁받아야	-9801
▁설명한	-9802
▁아돌프	-9803
▁아이오	-9804
▁알렸다	-9805
▁약속을	-9806
▁역에서	-9807
▁연구의	-9808
▁위협을	-9809
▁의문을	-9810
▁이기붕	-9811
▁이른다	-9812
▁이유가	-9813
▁이은이	-9814
▁인정한	-9815
▁임진왜	-9816
▁장면은	-9817
▁재판을	-9818
▁점수를	-9819
▁정신을	-9820
▁지키기	-9821
▁초점을	-9822
▁최후의	-9823
▁프랜시	-9824
른베르크	-9825
아프리카	-9826
▁1937	-9827
▁국무총리	-9828
▁독자적인	-9829
▁동아시아	-9830
▁명목으로	-9831
▁목소리를	-9832
▁발견했다	-9833
▁브래들리	-9834
▁사람에게	-9835
▁상태였다	-9836
▁서식하는	-9837
▁서울중앙	-9838
▁시민들의	-9839
▁시스템을	-9840
▁열렸는가	-9841
▁오디션을	-9842
▁측면에서	-9843
▁2,000	-9844
▁민주노동당	-9845
▁이르기까지	-9846
("	-9847
▁r	-9848
▁깔	-9849
▁딱	-9850
▁셈	-9851
▁콤	-9852
▁펄	-9853
그레	-9854
나르	-9855
니얼	-9856
령에	-9857
받을	-9858
법과	-9859
서와	-9860
세로	-9861
소녀	-9862
순위	-9863
신경	-9864
실은	-9865
액이	-9866
유대	-9867
작전	-9868
장조	-9869
저는	-9870
제르	-9871
직은	-9872
크스	-9873
태를	-9874
토미	-9875
티모	-9876
편에	-9877
품이	-9878
학에	-9879
행은	-9880
800	-9881
man	-9882
ung	-9883
▁"(	-9884
▁AT	-9885
▁It	-9886
▁JY	-9887
▁re	-9888
▁가라	-9889
▁가미	-9890
▁가축	-9891
▁건조	-9892
▁경신	-9893
▁기도	-9894
▁뇌물	-9895
▁단군	-9896
▁망원	-9897
▁법정	-9898
▁법조	-9899
▁봉쇄	-9900
▁부딪	-9901
▁부황	-9902
▁비로	-9903
▁사림	-9904
▁사립	-9905
▁수천	-9906
▁승려	-9907
▁식량	-9908
▁싶다	-9909
▁애틀	-9910
▁에도	-9911
▁우울	-9912
▁원격	-9913
▁인두	-9914
▁인증	-9915
▁자서	-9916
▁자율	-9917
▁자택	-9918
▁점거	-9919
▁존경	-9920
▁죽고	-9921
▁죽기	-9922
▁지출	-9923
▁축하	-9924
▁칼리	-9925
▁캐서	-9926
▁케네	-9927
▁토착	-9928
▁필립	-9929
▁한스	-9930
▁항해	-9931
▁해설	-9932
▁확신	-9933
년도는	-9934
되지만	-9935
레스의	-9936
억원을	-9937
조사를	-9938
주의는	-9939
해지는	-9940
화하는	-9941
▁3.1	-9942
▁Day	-9943
▁SNS	-9944
▁가가가	-9945
▁가치가	-9946
▁것보다	-9947
▁게임이	-9948
▁관하여	-9949
▁기술은	-9950
▁김고은	-9951
▁끝났다	-9952
▁다큐멘	-9953
▁디지가	-9954
▁딜런이	-9955
▁라이언	-9956
▁박원순	-9957
▁방송된	-9958
▁부대가	-9959
▁브리핑	-9960
▁비용을	-9961
▁사라진	-9962
▁생각이	-9963
▁생기는	-9964
▁선발로	-9965
▁성격이	-9966
▁세우고	-9967
▁신청을	-9968
▁언론의	-9969
▁에인절	-9970
▁여배우	-9971
▁여행을	-9972
▁위험한	-9973
▁음악가	-9974
▁인증을	-9975
▁자격을	-9976
▁자신과	-9977
▁존재할	-9978
▁종류는	-9979
▁질량이	-9980
▁철저한	-9981
▁체결된	-9982
▁터미널	-9983
▁합류한	-9984
▁홍준표	-9985
▁회고록	-9986
들에게는	-9987
▁구스타브	-9988
▁김연아가	-9989
▁남아있는	-9990
▁등장한다	-9991
▁르네상스	-9992
▁민주통합	-9993
▁보여준다	-9994
▁사용하기	-9995
▁소속으로	-9996
▁유지하고	-9997
▁주병진이	-9998
▁지칭하는	-9999
▁가즈히코가	-10000
▁기자회견을	-10001
▁대한민국에	-10002
▁브리트니는	-10003
▁위더스푼이	-10004
▁일시적으로	-10005
▁지역에서는	-10006
▁뮤직비디오는	-10007
▁아우구스투스는	-10008
(5	-10009
AL	-10010
IV	-10011
OP	-10012
ha	-10013
▁쿨	-10014
▁휠	-10015
가스	-10016
거진	-10017
계급	-10018
공원	-10019
군주	-10020
길이	-10021
나고	-10022
노예	-10023
노의	-10024
달아	-10025
더가	-10026
라에	-10027
레나	-10028
론과	-10029
면이	-10030
분은	-10031
빈은	-10032
세력	-10033
슬롯	-10034
연속	-10035
예를	-10036
오버	-10037
우고	-10038
인들	-10039
주지	-10040
청의	-10041
턴이	-10042
호사	-10043
ale	-10044
old	-10045
▁AK	-10046
▁RB	-10047
▁가질	-10048
▁개교	-10049
▁고지	-10050
▁높게	-10051
▁눈이	-10052
▁니시	-10053
▁달렉	-10054
▁던져	-10055
▁듯한	-10056
▁로키	-10057
▁리즈	-10058
▁마시	-10059
▁마약	-10060
▁말라	-10061
▁먹을	-10062
▁모바	-10063
▁묻는	-10064
▁박종	-10065
▁백색	-10066
▁브레	-10067
▁비유	-10068
▁사격	-10069
▁산하	-10070
▁상임	-10071
▁소통	-10072
▁스승	-10073
▁신장	-10074
▁아베	-10075
▁아폴	-10076
▁안의	-10077
▁알바	-10078
▁앞장	-10079
▁에미	-10080
▁에버	-10081
▁옆에	-10082
▁웃음	-10083
▁위의	-10084
▁유용	-10085
▁이건	-10086
▁인재	-10087
▁일관	-10088
▁전신	-10089
▁전제	-10090
▁정수	-10091
▁집어	-10092
▁척추	-10093
▁체중	-10094
▁추신	-10095
▁취업	-10096
▁측이	-10097
▁하트	-10098
▁할까	-10099
▁항생	-10100
▁현역	-10101
년간의	-10102
되었기	-10103
럼비아	-10104
만원을	-10105
면에서	-10106
스테르	-10107
자이자	-10108
체질의	-10109
티미터	-10110
하르트	-10111
했다가	-10112
vent	-10113
▁IRB	-10114
▁과정에	-10115
▁근처의	-10116
▁기록에	-10117
▁김일성	-10118
▁끝까지	-10119
▁늑대를	-10120
▁마음에	-10121
▁마케팅	-10122
▁목소리	-10123
▁물고기	-10124
▁빠져나	-10125
▁새로이	-10126
▁선거에	-10127
▁속도로	-10128
▁스미스	-10129
▁승리로	-10130
▁시간에	-10131
▁신사임	-10132
▁어렵다	-10133
▁언어를	-10134
▁연구소	-10135
▁이택근	-10136
▁이회창	-10137
▁일련의	-10138
▁자리잡	-10139
▁전체의	-10140
▁조정에	-10141
▁죽이고	-10142
▁지원한	-10143
▁지지한	-10144
▁초반에	-10145
▁최대한	-10146
▁출판한	-10147
▁특성을	-10148
▁표면에	-10149
▁프레드	-10150
▁학문은	-10151
▁행성은	-10152
▁헌법을	-10153
▁화제를	-10154
▁회의를	-10155
년부터는	-10156
대학으로	-10157
슈타인이	-10158
▁기본적인	-10159
▁논문에서	-10160
▁라즈베리	-10161
▁발생했다	-10162
▁비잔티움	-10163
▁소련군의	-10164
▁이듬해인	-10165
▁이전에는	-10166
▁중앙정보	-10167
▁출신으로	-10168
▁후계자로	-10169
▁히틀러는	-10170
▁히틀러의	-10171
▁대한민국은	-10172
▁라이프니츠	-10173
▁무엇이었나	-10174
▁사망하였다	-10175
▁스위프트는	-10176
▁콘스탄티노폴리스	-10177
33	-10178
EO	-10179
OK	-10180
me	-10181
ru	-10182
▁뻗	-10183
▁턱	-10184
▁펑	-10185
강목	-10186
거스	-10187
경비	-10188
공학	-10189
과가	-10190
기게	-10191
놓은	-10192
더니	-10193
미팅	-10194
바타	-10195
번은	-10196
사상	-10197
설에	-10198
션이	-10199
아니	-10200
여름	-10201
이한	-10202
인당	-10203
일으	-10204
초가	-10205
층은	-10206
카스	-10207
테이	-10208
피해	-10209
해양	-10210
해온	-10211
현재	-10212
ath	-10213
che	-10214
hat	-10215
ier	-10216
ney	-10217
▁JR	-10218
▁tv	-10219
▁가물	-10220
▁갑작	-10221
▁강릉	-10222
▁계절	-10223
▁공방	-10224
▁구역	-10225
▁군의	-10226
▁김상	-10227
▁나탈	-10228
▁년간	-10229
▁누적	-10230
▁다다	-10231
▁다윈	-10232
▁달아	-10233
▁따뜻	-10234
▁러브	-10235
▁마그	-10236
▁마인	-10237
▁매입	-10238
▁모드	-10239
▁모래	-10240
▁미끄	-10241
▁미치	-10242
▁민정	-10243
▁별의	-10244
▁보지	-10245
▁본질	-10246
▁불복	-10247
▁불을	-10248
▁빌딩	-10249
▁세바	-10250
▁수락	-10251
▁스포	-10252
▁스폰	-10253
▁시킨	-10254
▁신하	-10255
▁약물	-10256
▁억제	-10257
▁왕위	-10258
▁유키	-10259
▁의도	-10260
▁인문	-10261
▁자가	-10262
▁장제	-10263
▁제약	-10264
▁조언	-10265
▁증대	-10266
▁증후	-10267
▁지리	-10268
▁진상	-10269
▁착공	-10270
▁청소	-10271
▁치열	-10272
▁침해	-10273
▁카메	-10274
▁통계	-10275
▁퇴적	-10276
▁투옥	-10277
▁파티	-10278
▁팔꿈	-10279
▁평안	-10280
▁폰티	-10281
▁표명	-10282
▁하사	-10283
▁해제	-10284
관현악	-10285
렸으나	-10286
리면서	-10287
시간을	-10288
주년을	-10289
카운트	-10290
하에서	-10291
하자는	-10292
학자인	-10293
회담을	-10294
▁가솔린	-10295
▁결승전	-10296
▁계획에	-10297
▁교황의	-10298
▁국가를	-10299
▁노선은	-10300
▁대표가	-10301
▁대회의	-10302
▁뒤이어	-10303
▁들어갈	-10304
▁뛰어넘	-10305
▁메달을	-10306
▁물리적	-10307
▁물질이	-10308
▁믹스테	-10309
▁방송국	-10310
▁배치된	-10311
▁분명히	-10312
▁선택한	-10313
▁소재로	-10314
▁속도가	-10315
▁수보로	-10316
▁수익을	-10317
▁스타가	-10318
▁아래에	-10319
▁아이콘	-10320
▁악기는	-10321
▁야스히	-10322
▁연구한	-10323
▁이래로	-10324
▁이론의	-10325
▁잃어버	-10326
▁입었다	-10327
▁작곡가	-10328
▁잡아먹	-10329
▁적용된	-10330
▁제치고	-10331
▁촬영을	-10332
▁칼리스	-10333
▁캐서린	-10334
▁통틀어	-10335
▁특이점	-10336
▁팬미팅	-10337
▁평가가	-10338
▁1927	-10339
▁결승에서	-10340
▁국가에서	-10341
▁미니앨범	-10342
▁비트코인	-10343
▁사용한다	-10344
▁설명하는	-10345
▁소속사는	-10346
▁언급했다	-10347
▁연구하는	-10348
▁옹정제의	-10349
▁원작으로	-10350
▁인기가요	-10351
▁자유롭게	-10352
▁전능하신	-10353
▁주장하고	-10354
▁초기에는	-10355
▁최고위원	-10356
▁커뮤니티	-10357
▁프리미어	-10358
▁해결하기	-10359
▁활동했다	-10360
▁가니메데의	-10361
▁람슈타인의	-10362
▁북아일랜드	-10363
▁조선대학교	-10364
▁케임브리지	-10365
▁확인되었다	-10366
82	-10367
GM	-10368
TS	-10369
▁겉	-10370
▁닿	-10371
▁씌	-10372
▁잦	-10373
▁툴	-10374
강화	-10375
고속	-10376
됨에	-10377
러와	-10378
레오	-10379
리츠	-10380
리쿠	-10381
마뱀	-10382
모의	-10383
스텔	-10384
실록	-10385
연의	-10386
였을	-10387
잡이	-10388
정신	-10389
정지	-10390
종목	-10391
지나	-10392
최고	-10393
티지	-10394
폴리	-10395
히데	-10396
600	-10397
ach	-10398
▁BP	-10399
▁MS	-10400
▁NC	-10401
▁Se	-10402
▁가량	-10403
▁감지	-10404
▁결별	-10405
▁고객	-10406
▁관통	-10407
▁구로	-10408
▁구명	-10409
▁군은	-10410
▁굴절	-10411
▁기용	-10412
▁나름	-10413
▁누르	-10414
▁리틀	-10415
▁맞은	-10416
▁모집	-10417
▁무선	-10418
▁반월	-10419
▁반해	-10420
▁발명	-10421
▁배가	-10422
▁버마	-10423
▁버스	-10424
▁부지	-10425
▁불린	-10426
▁불편	-10427
▁빈번	-10428
▁살펴	-10429
▁신은	-10430
▁싸이	-10431
▁아는	-10432
▁아라	-10433
▁양쪽	-10434
▁에픽	-10435
▁엔지	-10436
▁오클	-10437
▁유물	-10438
▁인생	-10439
▁잡힌	-10440
▁적혀	-10441
▁전의	-10442
▁정립	-10443
▁조달	-10444
▁지고	-10445
▁지붕	-10446
▁진주	-10447
▁초신	-10448
▁출산	-10449
▁코드	-10450
▁탄자	-10451
▁태평	-10452
▁파트	-10453
▁패널	-10454
▁학부	-10455
▁해고	-10456
▁호평	-10457
▁후의	-10458
▁흑사	-10459
관왕을	-10460
렸다고	-10461
시대의	-10462
자들에	-10463
졌으나	-10464
중에는	-10465
해주는	-10466
해지고	-10467
▁개발에	-10468
▁갯수는	-10469
▁거기에	-10470
▁것임을	-10471
▁교황은	-10472
▁근거가	-10473
▁기능이	-10474
▁기록된	-10475
▁기소된	-10476
▁기자는	-10477
▁대학생	-10478
▁득점을	-10479
▁란슬롯	-10480
▁로마로	-10481
▁모르는	-10482
▁무엇과	-10483
▁문화의	-10484
▁문화적	-10485
▁방향을	-10486
▁보다는	-10487
▁보호를	-10488
▁부통령	-10489
▁사고를	-10490
▁승인을	-10491
▁신들의	-10492
▁신문은	-10493
▁실력을	-10494
▁암브로	-10495
▁없지만	-10496
▁역할의	-10497
▁영상을	-10498
▁올리는	-10499
▁와중에	-10500
▁왕위를	-10501
▁왕으로	-10502
▁외야수	-10503
▁위치는	-10504
▁이외의	-10505
▁이하의	-10506
▁일본과	-10507
▁임명한	-10508
▁있다가	-10509
▁제작에	-10510
▁중대한	-10511
▁중심핵	-10512
▁직전에	-10513
▁집정관	-10514
▁처분을	-10515
▁콰지모	-10516
▁태양계	-10517
▁파시즘	-10518
▁판정을	-10519
▁패배한	-10520
▁한동안	-10521
▁혁명의	-10522
▁협력을	-10523
▁형성된	-10524
▁활동은	-10525
▁황제를	-10526
▁효과가	-10527
적이었다	-10528
▁1909	-10529
▁Time	-10530
▁국회에서	-10531
▁대학에서	-10532
▁라스베이	-10533
▁러시아가	-10534
▁메시지를	-10535
▁불러일으	-10536
▁불렀는가	-10537
▁비욘세의	-10538
▁사람으로	-10539
▁생활수준	-10540
▁선수들을	-10541
▁성공적인	-10542
▁소속되어	-10543
▁신인상을	-10544
▁아니냐는	-10545
▁연결되어	-10546
▁오바마는	-10547
▁졸업하고	-10548
▁지휘하는	-10549
▁추정되는	-10550
▁타마르의	-10551
▁파시스트	-10552
▁학생들을	-10553
▁한효주가	-10554
▁3,000	-10555
▁Dream	-10556
▁나카모리는	-10557
▁임명되었다	-10558
▁잉글랜드의	-10559
▁트레이드를	-10560
▁유나이티드의	-10561
53	-10562
56	-10563
MA	-10564
ae	-10565
co	-10566
▁⇒	-10567
▁돋	-10568
▁뻔	-10569
가을	-10570
거래	-10571
교는	-10572
길을	-10573
날의	-10574
내어	-10575
노는	-10576
독한	-10577
동은	-10578
두에	-10579
라리	-10580
레는	-10581
레라	-10582
로에	-10583
료가	-10584
류에	-10585
린의	-10586
번에	-10587
병에	-10588
부민	-10589
비치	-10590
비한	-10591
산에	-10592
살이	-10593
시데	-10594
신당	-10595
연수	-10596
위권	-10597
인치	-10598
장히	-10599
참여	-10600
타리	-10601
텐츠	-10602
트루	-10603
판매	-10604
프스	-10605
하와	-10606
학원	-10607
황자	-10608
히토	-10609
.2%	-10610
.3%	-10611
ake	-10612
tle	-10613
▁58	-10614
▁가벼	-10615
▁각기	-10616
▁국유	-10617
▁긴장	-10618
▁김은	-10619
▁내야	-10620
▁농촌	-10621
▁늦게	-10622
▁다마	-10623
▁도청	-10624
▁등극	-10625
▁명문	-10626
▁모자	-10627
▁무솔	-10628
▁발포	-10629
▁백악	-10630
▁병을	-10631
▁봉건	-10632
▁북방	-10633
▁비핵	-10634
▁빈곤	-10635
▁빛을	-10636
▁사살	-10637
▁산성	-10638
▁살던	-10639
▁선을	-10640
▁알리	-10641
▁약혼	-10642
▁어른	-10643
▁에디	-10644
▁연재	-10645
▁열고	-10646
▁온타	-10647
▁와카	-10648
▁월간	-10649
▁위장	-10650
▁응용	-10651
▁일명	-10652
▁일컬	-10653
▁잃고	-10654
▁전작	-10655
▁전진	-10656
▁접수	-10657
▁정성	-10658
▁제재	-10659
▁조롱	-10660
▁종속	-10661
▁주먹	-10662
▁주문	-10663
▁진짜	-10664
▁집합	-10665
▁치러	-10666
▁카피	-10667
▁케빈	-10668
▁통보	-10669
▁팀에	-10670
▁파기	-10671
▁판문	-10672
▁판소	-10673
▁판타	-10674
▁페리	-10675
▁포도	-10676
▁프린	-10677
▁피신	-10678
▁한신	-10679
▁한족	-10680
▁협조	-10681
까지만	-10682
라이어	-10683
만명의	-10684
보르기	-10685
스트라	-10686
정당의	-10687
정부는	-10688
하자고	-10689
▁250	-10690
▁격렬한	-10691
▁결론을	-10692
▁경력을	-10693
▁국가에	-10694
▁국경을	-10695
▁균형을	-10696
▁대표적	-10697
▁도호쿠	-10698
▁되었을	-10699
▁마르코	-10700
▁마쳤다	-10701
▁명예의	-10702
▁목성의	-10703
▁문제의	-10704
▁반면에	-10705
▁버리고	-10706
▁분야의	-10707
▁브로드	-10708
▁비공식	-10709
▁사고가	-10710
▁사이퍼	-10711
▁상태를	-10712
▁성장을	-10713
▁스톤은	-10714
▁아테네	-10715
▁앨범이	-10716
▁영화제	-10717
▁옹정제	-10718
▁윤잉의	-10719
▁이스트	-10720
▁이종욱	-10721
▁제공한	-10722
▁주제가	-10723
▁중국을	-10724
▁중반에	-10725
▁지도를	-10726
▁지적한	-10727
▁차이로	-10728
▁참가를	-10729
▁추가된	-10730
▁하나를	-10731
▁합의를	-10732
▁행동에	-10733
▁호흡을	-10734
▁확인할	-10735
▁훌린의	-10736
ction	-10737
▁1929	-10738
▁2020	-10739
▁강력하게	-10740
▁국민의당	-10741
▁단계에서	-10742
▁달성했다	-10743
▁받았는데	-10744
▁비판하는	-10745
▁사회에서	-10746
▁시절부터	-10747
▁어디까지	-10748
▁온타리오	-10749
▁인사청문	-10750
▁캐릭터는	-10751
▁킬로미터	-10752
▁터브먼은	-10753
▁토너먼트	-10754
▁하더라도	-10755
▁한국교원	-10756
포켓몬스터	-10757
▁부산대학교	-10758
▁스위프트의	-10759
▁스피어스는	-10760
▁알렉산데르	-10761
▁어디인가요	-10762
▁출시되었다	-10763
▁칼리스토의	-10764
▁플레이어는	-10765
▁롯데월드타워	-10766
▁무엇이었는가	-10767
cc	-10768
▁멋	-10769
▁옐	-10770
▁튜	-10771
가르	-10772
감한	-10773
국인	-10774
냐고	-10775
님이	-10776
데리	-10777
되나	-10778
란의	-10779
레의	-10780
마을	-10781
멩겔	-10782
문과	-10783
배가	-10784
벨트	-10785
보안	-10786
본은	-10787
빈의	-10788
소울	-10789
슬러	-10790
여명	-10791
자키	-10792
지검	-10793
처가	-10794
처리	-10795
출을	-10796
칙을	-10797
카드	-10798
킬로	-10799
택이	-10800
턴은	-10801
해질	-10802
현은	-10803
ert	-10804
ron	-10805
▁4·	-10806
▁85	-10807
▁DJ	-10808
▁Su	-10809
▁cm	-10810
▁가공	-10811
▁가깝	-10812
▁견해	-10813
▁과잉	-10814
▁그다	-10815
▁나를	-10816
▁낙선	-10817
▁냉각	-10818
▁단원	-10819
▁데옹	-10820
▁루트	-10821
▁막아	-10822
▁무효	-10823
▁미싱	-10824
▁박현	-10825
▁방화	-10826
▁사도	-10827
▁사지	-10828
▁삼국	-10829
▁서기	-10830
▁석사	-10831
▁소셜	-10832
▁신규	-10833
▁아편	-10834
▁암시	-10835
▁야기	-10836
▁연금	-10837
▁왜냐	-10838
▁우르	-10839
▁원시	-10840
▁임무	-10841
▁입각	-10842
▁잡혀	-10843
▁잭슨	-10844
▁정벌	-10845
▁좌측	-10846
▁중도	-10847
▁진지	-10848
▁충격	-10849
▁치안	-10850
▁칼럼	-10851
▁캠퍼	-10852
▁타우	-10853
▁태그	-10854
▁트렉	-10855
▁트루	-10856
▁폭격	-10857
▁해소	-10858
▁희극	-10859
버렸다	-10860
법에서	-10861
사단의	-10862
사리요	-10863
신도시	-10864
음으로	-10865
적이지	-10866
전부터	-10867
평론가	-10868
ence	-10869
▁130	-10870
▁50%	-10871
▁Sou	-10872
▁공격할	-10873
▁공사를	-10874
▁공세를	-10875
▁굉장히	-10876
▁글로벌	-10877
▁노르드	-10878
▁대신에	-10879
▁동안에	-10880
▁뒤에는	-10881
▁따르는	-10882
▁로렌스	-10883
▁마음이	-10884
▁못했던	-10885
▁방송사	-10886
▁버렸다	-10887
▁보고서	-10888
▁본명은	-10889
▁본인의	-10890
▁부임한	-10891
▁사로잡	-10892
▁사용해	-10893
▁설명할	-10894
▁세계대	-10895
▁세워진	-10896
▁시도한	-10897
▁어디의	-10898
▁에볼라	-10899
▁영역을	-10900
▁올랐고	-10901
▁왕조의	-10902
▁요소는	-10903
▁위기를	-10904
▁유니버	-10905
▁인간을	-10906
▁작품이	-10907
▁전화를	-10908
▁주니어	-10909
▁중국어	-10910
▁지냈다	-10911
▁집단은	-10912
▁최근에	-10913
▁카라의	-10914
▁쿰스가	-10915
▁크기는	-10916
▁타율을	-10917
▁특징은	-10918
▁팽나무	-10919
▁표현을	-10920
▁프란츠	-10921
▁하거나	-10922
▁학교에	-10923
▁황태자	-10924
▁1849	-10925
▁그랑프리	-10926
▁끊임없이	-10927
▁내부에서	-10928
▁드래곤볼	-10929
▁람보르기	-10930
▁명나라의	-10931
▁발표하고	-10932
▁보호하기	-10933
▁성적으로	-10934
▁세드나의	-10935
▁스스로를	-10936
▁어려움을	-10937
▁에스메랄	-10938
▁연합군의	-10939
▁운동으로	-10940
▁이야기는	-10941
▁인정하지	-10942
▁지방에서	-10943
▁페르시아	-10944
▁폴란드의	-10945
▁현존하는	-10946
▁후지와라	-10947
카운트다운	-10948
프란시스코	-10949
▁뉘른베르크	-10950
▁미국에서는	-10951
▁스파이더맨	-10952
▁오카자키는	-10953
▁전국적으로	-10954
▁차지하였다	-10955
▁코벨레스키가	-10956
▁프리스틀리는	-10957
87	-10958
Un	-10959
gr	-10960
ss	-10961
▁)	-10962
▁셔	-10963
▁젠	-10964
▁째	-10965
▁찢	-10966
▁픽	-10967
견을	-10968
리즘	-10969
림을	-10970
메스	-10971
모는	-10972
모니	-10973
박을	-10974
받침	-10975
벽을	-10976
서야	-10977
세트	-10978
소스	-10979
열에	-10980
였기	-10981
우며	-10982
위반	-10983
일자	-10984
전선	-10985
절한	-10986
직원	-10987
칭을	-10988
커스	-10989
컨대	-10990
켈라	-10991
키퍼	-10992
하러	-10993
호선	-10994
확인	-10995
(16	-10996
.4%	-10997
anc	-10998
ene	-10999
hel	-11000
iel	-11001
ost	-11002
▁69	-11003
▁SF	-11004
▁가고	-11005
▁가야	-11006
▁개가	-11007
▁개를	-11008
▁거느	-11009
▁고속	-11010
▁김진	-11011
▁깃털	-11012
▁남서	-11013
▁단종	-11014
▁동행	-11015
▁드럼	-11016
▁마일	-11017
▁마주	-11018
▁마하	-11019
▁매달	-11020
▁맥아	-11021
▁멩겔	-11022
▁명시	-11023
▁명에	-11024
▁명은	-11025
▁모으	-11026
▁박헌	-11027
▁반입	-11028
▁부실	-11029
▁부장	-11030
▁비리	-11031
▁비평	-11032
▁사카	-11033
▁삭제	-11034
▁선구	-11035
▁수동	-11036
▁수호	-11037
▁시나	-11038
▁시를	-11039
▁신축	-11040
▁아비	-11041
▁아쉬	-11042
▁안드	-11043
▁업데	-11044
▁역전	-11045
▁연희	-11046
▁영주	-11047
▁오해	-11048
▁원수	-11049
▁유산	-11050
▁이가	-11051
▁이례	-11052
▁입는	-11053
▁자랑	-11054
▁자의	-11055
▁자진	-11056
▁자크	-11057
▁저는	-11058
▁정한	-11059
▁춘천	-11060
▁춤을	-11061
▁팔린	-11062
▁폭스	-11063
▁폴은	-11064
▁풀려	-11065
▁한쪽	-11066
▁한층	-11067
▁합성	-11068
▁해금	-11069
▁해준	-11070
▁휩쓸	-11071
군에서	-11072
시에서	-11073
운동에	-11074
이었기	-11075
제국의	-11076
하였기	-11077
▁가져온	-11078
▁같다고	-11079
▁결과에	-11080
▁계획의	-11081
▁구미베	-11082
▁구조는	-11083
▁끝으로	-11084
▁나이가	-11085
▁니체의	-11086
▁다니엘	-11087
▁당하고	-11088
▁데시데	-11089
▁도서관	-11090
▁모바일	-11091
▁미스터	-11092
▁바꾸어	-11093
▁바르셀	-11094
▁발생할	-11095
▁법칙을	-11096
▁별도의	-11097
▁복귀한	-11098
▁부분의	-11099
▁불리며	-11100
▁블리자	-11101
▁사고로	-11102
▁성명을	-11103
▁소행성	-11104
▁싸움을	-11105
▁아니며	-11106
▁아직도	-11107
▁안드레	-11108
▁않다고	-11109
▁얼굴을	-11110
▁엘리어	-11111
▁연대기	-11112
▁예수회	-11113
▁오르는	-11114
▁우연히	-11115
▁우주의	-11116
▁음반이	-11117
▁의회의	-11118
▁있는지	-11119
▁작업이	-11120
▁전라도	-11121
▁전략을	-11122
▁전략적	-11123
▁전쟁과	-11124
▁전체가	-11125
▁제국이	-11126
▁조금씩	-11127
▁조선에	-11128
▁주위를	-11129
▁주제를	-11130
▁준우승	-11131
▁중성자	-11132
▁지금은	-11133
▁질량의	-11134
▁차례로	-11135
▁출판된	-11136
▁테일러	-11137
▁통일을	-11138
▁파견된	-11139
▁퍼센트	-11140
▁프레스	-11141
▁행동은	-11142
▁헨리에	-11143
▁회장의	-11144
▁흐르는	-11145
적이라고	-11146
조사에서	-11147
▁1860	-11148
▁5·16	-11149
▁공화국의	-11150
▁데뷔했다	-11151
▁드레퓌스	-11152
▁루마니아	-11153
▁방문하여	-11154
▁병원에서	-11155
▁보도했다	-11156
▁브루클린	-11157
▁생각하고	-11158
▁시베리아	-11159
▁언제까지	-11160
▁위안스카	-11161
▁의사소통	-11162
▁자유로운	-11163
▁중요성을	-11164
▁총학생회	-11165
▁캐릭터를	-11166
▁케플러가	-11167
▁포함하는	-11168
▁활동하는	-11169
▁회의에서	-11170
▁개인적으로	-11171
▁비판하였다	-11172
▁일어났는가	-11173
▁정치적으로	-11174
▁한편으로는	-11175
ational	-11176
▁샌프란시스코	-11177
▁오스트리아의	-11178
1,	-11179
52	-11180
gy	-11181
we	-11182
▁젝	-11183
▁펴	-11184
▁헐	-11185
그루	-11186
나우	-11187
더릭	-11188
란트	-11189
버리	-11190
속한	-11191
수지	-11192
시설	-11193
실버	-11194
열의	-11195
우와	-11196
운의	-11197
있고	-11198
자나	-11199
종합	-11200
증이	-11201
처분	-11202
쳤고	-11203
총장	-11204
크리	-11205
키를	-11206
토리	-11207
판은	-11208
패로	-11209
한을	-11210
해줄	-11211
헤이	-11212
호텔	-11213
▁6,	-11214
▁Sc	-11215
▁TC	-11216
▁가죽	-11217
▁각색	-11218
▁공의	-11219
▁남동	-11220
▁낮아	-11221
▁내리	-11222
▁다닌	-11223
▁단위	-11224
▁도발	-11225
▁동네	-11226
▁동위	-11227
▁뜻은	-11228
▁루즈	-11229
▁막내	-11230
▁목사	-11231
▁문자	-11232
▁미셸	-11233
▁박재	-11234
▁밖의	-11235
▁반성	-11236
▁발각	-11237
▁배틀	-11238
▁버지	-11239
▁보잉	-11240
▁비주	-11241
▁빌려	-11242
▁서현	-11243
▁섬유	-11244
▁성의	-11245
▁세그	-11246
▁순환	-11247
▁슈뢰	-11248
▁싱가	-11249
▁아서	-11250
▁역에	-11251
▁원년	-11252
▁유족	-11253
▁이병	-11254
▁이복	-11255
▁임신	-11256
▁입당	-11257
▁자매	-11258
▁자폐	-11259
▁재건	-11260
▁전례	-11261
▁전선	-11262
▁제니	-11263
▁주거	-11264
▁체험	-11265
▁총애	-11266
▁추락	-11267
▁충족	-11268
▁코다	-11269
▁콘돈	-11270
▁탄소	-11271
▁파란	-11272
▁파생	-11273
▁포인	-11274
▁하후	-11275
▁해를	-11276
▁혼인	-11277
▁화산	-11278
▁후루	-11279
네시아	-11280
비서실	-11281
사단은	-11282
사단이	-11283
사회의	-11284
석에서	-11285
스포츠	-11286
으려고	-11287
주의가	-11288
usic	-11289
▁JYP	-11290
▁OST	-11291
▁검은색	-11292
▁경계를	-11293
▁고래상	-11294
▁과정은	-11295
▁국적은	-11296
▁그러던	-11297
▁그러자	-11298
▁기술의	-11299
▁네이버	-11300
▁논쟁이	-11301
▁느낌을	-11302
▁대신해	-11303
▁두드러	-11304
▁뒷받침	-11305
▁리얼리	-11306
▁면에서	-11307
▁모두가	-11308
▁미세먼	-11309
▁변화에	-11310
▁보이며	-11311
▁부대를	-11312
▁비서실	-11313
▁삼지연	-11314
▁세력의	-11315
▁세상에	-11316
▁소속의	-11317
▁수술을	-11318
▁십자가	-11319
▁싱글로	-11320
▁안타를	-11321
▁야마토	-11322
▁어려워	-11323
▁열차는	-11324
▁요소가	-11325
▁원세훈	-11326
▁위클리	-11327
▁음악의	-11328
▁음악이	-11329
▁의미로	-11330
▁입지를	-11331
▁있나요	-11332
▁점수는	-11333
▁주장도	-11334
▁즉위한	-11335
▁지구를	-11336
▁참여할	-11337
▁책임이	-11338
▁철학자	-11339
▁체제로	-11340
▁총리는	-11341
▁최소화	-11342
▁치러진	-11343
▁캠퍼스	-11344
▁클레오	-11345
▁파운드	-11346
▁파이널	-11347
▁프로모	-11348
▁하기로	-11349
▁하세가	-11350
▁핵실험	-11351
▁행위는	-11352
▁혁명을	-11353
▁현장에	-11354
▁활약한	-11355
▁회담을	-11356
▁회사가	-11357
▁1898	-11358
▁JTBC	-11359
▁갈릴레이	-11360
▁러시아와	-11361
▁발견되는	-11362
▁부르주아	-11363
▁분위기를	-11364
▁시작하는	-11365
▁여겨진다	-11366
▁우루과이	-11367
▁운영하고	-11368
▁이마나카	-11369
▁인정하고	-11370
▁작품에서	-11371
▁주한미군	-11372
▁챔피언십	-11373
▁추측된다	-11374
▁포지션은	-11375
▁학생들의	-11376
▁한반도에	-11377
▁남아메리카	-11378
▁대학교에서	-11379
▁스피어스의	-11380
▁카스트로는	-11381
▁페르디난트	-11382
인민공화국의	-11383
▁디스워오브마인	-11384
79	-11385
EG	-11386
OU	-11387
pp	-11388
ta	-11389
▁밟	-11390
▁젖	-11391
▁탕	-11392
감에	-11393
골드	-11394
공간	-11395
그는	-11396
단위	-11397
루의	-11398
릭스	-11399
립을	-11400
모델	-11401
물과	-11402
부상	-11403
블로	-11404
생명	-11405
성인	-11406
셨다	-11407
이즈	-11408
인다	-11409
절이	-11410
져야	-11411
카는	-11412
턴의	-11413
투를	-11414
포의	-11415
황제	-11416
-15	-11417
400	-11418
ins	-11419
row	-11420
▁67	-11421
▁가동	-11422
▁가뭄	-11423
▁강등	-11424
▁개종	-11425
▁검거	-11426
▁겪은	-11427
▁고백	-11428
▁공민	-11429
▁과도	-11430
▁그중	-11431
▁김형	-11432
▁끼친	-11433
▁도는	-11434
▁둘은	-11435
▁뒤집	-11436
▁라자	-11437
▁러셀	-11438
▁루스	-11439
▁매립	-11440
▁메디	-11441
▁메리	-11442
▁멘델	-11443
▁모나	-11444
▁모은	-11445
▁목을	-11446
▁무승	-11447
▁문희	-11448
▁바에	-11449
▁병은	-11450
▁보즈	-11451
▁분비	-11452
▁불량	-11453
▁불어	-11454
▁붙어	-11455
▁붙은	-11456
▁빨간	-11457
▁뿌리	-11458
▁살려	-11459
▁서방	-11460
▁선생	-11461
▁소문	-11462
▁수수	-11463
▁숙종	-11464
▁숨겨	-11465
▁시추	-11466
▁신념	-11467
▁신용	-11468
▁실각	-11469
▁안기	-11470
▁앓고	-11471
▁양산	-11472
▁업적	-11473
▁없던	-11474
▁여야	-11475
▁여우	-11476
▁요격	-11477
▁요인	-11478
▁원고	-11479
▁을사	-11480
▁이근	-11481
▁이글	-11482
▁이단	-11483
▁인명	-11484
▁장난	-11485
▁장미	-11486
▁재활	-11487
▁적고	-11488
▁접어	-11489
▁존슨	-11490
▁중장	-11491
▁지평	-11492
▁창의	-11493
▁창작	-11494
▁창출	-11495
▁채로	-11496
▁총대	-11497
▁추미	-11498
▁축제	-11499
▁카라	-11500
▁평범	-11501
▁포병	-11502
▁하노	-11503
▁하차	-11504
▁회상	-11505
▁후궁	-11506
경기를	-11507
내에서	-11508
당하는	-11509
들보다	-11510
레스트	-11511
심으로	-11512
위원장	-11513
으로의	-11514
이므로	-11515
이었을	-11516
인기가	-11517
있었다	-11518
자라고	-11519
주의에	-11520
직에서	-11521
크에서	-11522
테리아	-11523
퍼센트	-11524
행위를	-11525
▁0.2	-11526
▁간단한	-11527
▁감정을	-11528
▁갖추고	-11529
▁건물을	-11530
▁검사를	-11531
▁골키퍼	-11532
▁공격이	-11533
▁공연은	-11534
▁구하기	-11535
▁기여를	-11536
▁나라에	-11537
▁나이에	-11538
▁디스크	-11539
▁리그에	-11540
▁먹이가	-11541
▁무소속	-11542
▁무조건	-11543
▁미드필	-11544
▁바다의	-11545
▁발행한	-11546
▁베컴의	-11547
▁보도를	-11548
▁부르며	-11549
▁블로그	-11550
▁비로소	-11551
▁사이버	-11552
▁사전에	-11553
▁사회가	-11554
▁색깔은	-11555
▁설립을	-11556
▁소식이	-11557
▁속도는	-11558
▁순수한	-11559
▁스티브	-11560
▁시작할	-11561
▁시장의	-11562
▁시청률	-11563
▁심하게	-11564
▁없어서	-11565
▁유병언	-11566
▁이르렀	-11567
▁인상을	-11568
▁작업에	-11569
▁잡지는	-11570
▁장르는	-11571
▁전자기	-11572
▁정권에	-11573
▁정책의	-11574
▁정치의	-11575
▁조직이	-11576
▁중국과	-11577
▁중심의	-11578
▁차례의	-11579
▁찬사를	-11580
▁쿠데타	-11581
▁테니스	-11582
▁패러디	-11583
▁페이지	-11584
▁프랭크	-11585
▁하다가	-11586
▁하우스	-11587
▁후보자	-11588
년대부터	-11589
▁1931	-11590
▁Part	-11591
▁거부하고	-11592
▁결정하는	-11593
▁경상남도	-11594
▁고속도로	-11595
▁관점에서	-11596
▁국민들의	-11597
▁그레이트	-11598
▁근처에서	-11599
▁도시에서	-11600
▁도착했다	-11601
▁되었다는	-11602
▁로마에서	-11603
▁민주당은	-11604
▁사용하지	-11605
▁생각된다	-11606
▁왜냐하면	-11607
▁유타카가	-11608
▁이끌었다	-11609
▁이집트의	-11610
▁전두환의	-11611
▁중에서도	-11612
▁최진실을	-11613
▁캐릭터의	-11614
▁트로이아	-11615
▁펜실베이	-11616
▁화이트삭	-11617
▁기본적으로	-11618
▁무엇일까요	-11619
▁솔라나스는	-11620
▁이루어지지	-11621
▁이루어진다	-11622
▁크리스마스	-11623
▁타이틀곡은	-11624
▁동일본대지진의	-11625
▁오스트레일리아청개	-11626
42	-11627
▁겁	-11628
▁벵	-11629
▁뿔	-11630
▁숀	-11631
▁쑨	-11632
▁헥	-11633
겼고	-11634
관련	-11635
기사	-11636
동지	-11637
들여	-11638
뢴트	-11639
루수	-11640
마쓰	-11641
민과	-11642
반구	-11643
살렘	-11644
세요	-11645
수산	-11646
시노	-11647
악한	-11648
안녕	-11649
양성	-11650
열은	-11651
오를	-11652
오리	-11653
월과	-11654
유예	-11655
유지	-11656
전체	-11657
조연	-11658
중의	-11659
창극	-11660
커는	-11661
터를	-11662
테말	-11663
티브	-11664
포이	-11665
합의	-11666
협정	-11667
훈장	-11668
힌다	-11669
.19	-11670
iam	-11671
ish	-11672
▁62	-11673
▁76	-11674
▁An	-11675
▁Le	-11676
▁개칭	-11677
▁개헌	-11678
▁견훤	-11679
▁곤충	-11680
▁그저	-11681
▁당대	-11682
▁대거	-11683
▁더글	-11684
▁더빙	-11685
▁독도	-11686
▁랭크	-11687
▁레인	-11688
▁로얄	-11689
▁링컨	-11690
▁막는	-11691
▁몇일	-11692
▁묘호	-11693
▁발령	-11694
▁배속	-11695
▁버락	-11696
▁별일	-11697
▁불평	-11698
▁붕어	-11699
▁수치	-11700
▁쓰레	-11701
▁안티	-11702
▁엔트	-11703
▁염색	-11704
▁왕실	-11705
▁외곽	-11706
▁외의	-11707
▁원의	-11708
▁위임	-11709
▁의거	-11710
▁이심	-11711
▁이즈	-11712
▁재능	-11713
▁재편	-11714
▁점프	-11715
▁종전	-11716
▁주행	-11717
▁창시	-11718
▁최하	-11719
▁충성	-11720
▁타당	-11721
▁폭넓	-11722
▁폭파	-11723
▁피카	-11724
▁한계	-11725
▁현행	-11726
▁호메	-11727
검찰청	-11728
계획을	-11729
권으로	-11730
년도에	-11731
단체의	-11732
렸는데	-11733
뢴트겐	-11734
시키며	-11735
어졌다	-11736
텔레콤	-11737
하려면	-11738
합니다	-11739
화하여	-11740
reat	-11741
▁Fre	-11742
▁MGM	-11743
▁것인데	-11744
▁견해를	-11745
▁과테말	-11746
▁교육과	-11747
▁기록해	-11748
▁기여한	-11749
▁남기고	-11750
▁낳았다	-11751
▁누켈라	-11752
▁대중의	-11753
▁도덕적	-11754
▁동안의	-11755
▁리비아	-11756
▁머물렀	-11757
▁목적을	-11758
▁밀리언	-11759
▁밴드는	-11760
▁본인이	-11761
▁볼셰비	-11762
▁부문에	-11763
▁비난한	-11764
▁사회를	-11765
▁소련이	-11766
▁소문이	-11767
▁소설은	-11768
▁시기의	-11769
▁시신을	-11770
▁시에서	-11771
▁시티는	-11772
▁신호를	-11773
▁신화를	-11774
▁아들의	-11775
▁아무도	-11776
▁약간의	-11777
▁여름에	-11778
▁영어로	-11779
▁영향이	-11780
▁온도가	-11781
▁유학을	-11782
▁이라는	-11783
▁인도의	-11784
▁일본어	-11785
▁장면이	-11786
▁전역에	-11787
▁정신과	-11788
▁제의를	-11789
▁종목은	-11790
▁주제는	-11791
▁증거가	-11792
▁진출에	-11793
▁케네디	-11794
▁파트너	-11795
▁희생자	-11796
프라이즈	-11797
▁1883	-11798
▁구성하는	-11799
▁기록하고	-11800
▁돌아왔다	-11801
▁동영상을	-11802
▁마드리드	-11803
▁방송에서	-11804
▁버지니아	-11805
▁사용했다	-11806
▁세브란스	-11807
▁어머니와	-11808
▁에이리언	-11809
▁인정하는	-11810
▁일어나지	-11811
▁중요하게	-11812
▁한반도의	-11813
▁한편으로	-11814
▁대한민국을	-11815
▁시상식에서	-11816
▁아카데미상	-11817
▁카이사르의	-11818
▁합스부르크	-11819
▁스카이라인의	-11820
3)	-11821
66	-11822
:1	-11823
He	-11824
ps	-11825
▁곰	-11826
▁굽	-11827
것도	-11828
골로	-11829
교로	-11830
교수	-11831
금융	-11832
디언	-11833
모양	-11834
비트	-11835
살을	-11836
업은	-11837
음반	-11838
져서	-11839
주쿠	-11840
하니	-11841
항에	-11842
회전	-11843
(18	-11844
ium	-11845
ius	-11846
und	-11847
▁63	-11848
▁68	-11849
▁87	-11850
▁SS	-11851
▁We	-11852
▁가격	-11853
▁갈색	-11854
▁개성	-11855
▁공모	-11856
▁공주	-11857
▁과반	-11858
▁관념	-11859
▁관습	-11860
▁교차	-11861
▁귀환	-11862
▁규탄	-11863
▁기각	-11864
▁김용	-11865
▁깨닫	-11866
▁난징	-11867
▁남게	-11868
▁넘게	-11869
▁담겨	-11870
▁동화	-11871
▁로봇	-11872
▁리베	-11873
▁말미	-11874
▁매진	-11875
▁메르	-11876
▁반공	-11877
▁발현	-11878
▁배후	-11879
▁백련	-11880
▁백지	-11881
▁부각	-11882
▁분광	-11883
▁산악	-11884
▁서민	-11885
▁세기	-11886
▁손상	-11887
▁시는	-11888
▁시키	-11889
▁신정	-11890
▁실력	-11891
▁실무	-11892
▁안재	-11893
▁애국	-11894
▁애비	-11895
▁얘기	-11896
▁엠넷	-11897
▁여주	-11898
▁연계	-11899
▁영광	-11900
▁오공	-11901
▁오세	-11902
▁올림	-11903
▁유교	-11904
▁윤원	-11905
▁응원	-11906
▁이리	-11907
▁이송	-11908
▁이슈	-11909
▁인원	-11910
▁장병	-11911
▁저질	-11912
▁정무	-11913
▁정원	-11914
▁조형	-11915
▁주가	-11916
▁중견	-11917
▁중재	-11918
▁지냈	-11919
▁지바	-11920
▁진정	-11921
▁청동	-11922
▁총괄	-11923
▁최연	-11924
▁추종	-11925
▁친척	-11926
▁타자	-11927
▁토크	-11928
▁팀추	-11929
▁파스	-11930
▁혜성	-11931
▁환자	-11932
▁회유	-11933
라이트	-11934
렸지만	-11935
스토폴	-11936
신으로	-11937
우리는	-11938
위권에	-11939
지는데	-11940
포이멘	-11941
▁가수가	-11942
▁거리가	-11943
▁건물의	-11944
▁그렇지	-11945
▁기회가	-11946
▁까마귀	-11947
▁끌어올	-11948
▁나오고	-11949
▁독일과	-11950
▁되돌아	-11951
▁두었다	-11952
▁드러난	-11953
▁들어갔	-11954
▁뢴트겐	-11955
▁메모리	-11956
▁발라드	-11957
▁베이루	-11958
▁부서는	-11959
▁분석한	-11960
▁비정규	-11961
▁사이를	-11962
▁사이언	-11963
▁선언을	-11964
▁선택할	-11965
▁성향을	-11966
▁세번째	-11967
▁속으로	-11968
▁수도는	-11969
▁수도원	-11970
▁신화의	-11971
▁아래로	-11972
▁아파트	-11973
▁않았기	-11974
▁알리는	-11975
▁영원히	-11976
▁완성된	-11977
▁우려가	-11978
▁유가족	-11979
▁인사를	-11980
▁장르의	-11981
▁재능을	-11982
▁정권은	-11983
▁제도가	-11984
▁차량의	-11985
▁청계천	-11986
▁체계를	-11987
▁추미애	-11988
▁출범한	-11989
▁쿠퍼가	-11990
▁클럽의	-11991
▁클린턴	-11992
▁팬들의	-11993
▁할머니	-11994
▁핵무기	-11995
▁헌법의	-11996
▁회의는	-11997
▁휘하의	-11998
되었다가	-11999
인기가요	-12000
▁1880	-12001
▁1902	-12002
▁This	-12003
▁국가인권	-12004
▁그들에게	-12005
▁기독교의	-12006
▁김일성은	-12007
▁문재인의	-12008
▁미사일을	-12009
▁받았지만	-12010
▁비밀리에	-12011
▁사이에는	-12012
▁수행하는	-12013
▁시장에서	-12014
▁신화에서	-12015
▁아리스토	-12016
▁안철수가	-12017
▁업데이트	-12018
▁위원장은	-12019
▁율리우스	-12020
▁이전까지	-12021
▁전인범이	-12022
▁제안했다	-12023
▁지속적인	-12024
▁출연하며	-12025
▁치명적인	-12026
▁탄자니아	-12027
▁프랜시스	-12028
▁학교에서	-12029
▁활동하고	-12030
▁5,000	-12031
▁나카모리의	-12032
▁리투아니아	-12033
▁만들어졌다	-12034
▁말레이시아	-12035
▁세바스토폴	-12036
▁아이스하키	-12037
▁자발적으로	-12038
▁베이비복스가	-12039
▁유럽찌르레기	-12040
▁아우구스투스의	-12041
(7	-12042
-9	-12043
1)	-12044
LA	-12045
Mr	-12046
TO	-12047
ah	-12048
sh	-12049
▁.	-12050
▁k	-12051
▁곁	-12052
▁립	-12053
▁섀	-12054
▁톤	-12055
게는	-12056
고기	-12057
고도	-12058
극의	-12059
노를	-12060
노스	-12061
달이	-12062
더의	-12063
라기	-12064
론적	-12065
목에	-12066
발의	-12067
보의	-12068
비츠	-12069
색이	-12070
에너	-12071
우지	-12072
월한	-12073
으신	-12074
제프	-12075
지대	-12076
지리	-12077
콘서	-12078
토요	-12079
행동	-12080
혹한	-12081
ARD	-12082
ary	-12083
ase	-12084
ere	-12085
olf	-12086
▁57	-12087
▁88	-12088
▁Ad	-12089
▁Gr	-12090
▁개명	-12091
▁개화	-12092
▁경과	-12093
▁경유	-12094
▁고르	-12095
▁곳이	-12096
▁공표	-12097
▁구해	-12098
▁구형	-12099
▁구호	-12100
▁급성	-12101
▁꺾고	-12102
▁끌고	-12103
▁나고	-12104
▁내걸	-12105
▁다름	-12106
▁달의	-12107
▁돕기	-12108
▁때려	-12109
▁마디	-12110
▁몇번	-12111
▁모니	-12112
▁바가	-12113
▁발트	-12114
▁백남	-12115
▁병행	-12116
▁부품	-12117
▁분출	-12118
▁불이	-12119
▁빛의	-12120
▁삼고	-12121
▁삼촌	-12122
▁색은	-12123
▁서강	-12124
▁선조	-12125
▁세미	-12126
▁소극	-12127
▁수은	-12128
▁수인	-12129
▁슈테	-12130
▁스태	-12131
▁승차	-12132
▁시선	-12133
▁실려	-12134
▁쌍성	-12135
▁알을	-12136
▁압축	-12137
▁양이	-12138
▁유성	-12139
▁이오	-12140
▁이진	-12141
▁입성	-12142
▁적어	-12143
▁적을	-12144
▁정종	-12145
▁제프	-12146
▁조명	-12147
▁주창	-12148
▁중엽	-12149
▁진동	-12150
▁쫓겨	-12151
▁초창	-12152
▁카지	-12153
▁카터	-12154
▁탄약	-12155
▁탈삼	-12156
▁편지	-12157
▁평생	-12158
▁한강	-12159
▁화해	-12160
▁힌두	-12161
가에서	-12162
개월간	-12163
년으로	-12164
들었다	-12165
리우드	-12166
바르드	-12167
생으로	-12168
오스트	-12169
이라면	-12170
이어서	-12171
조약을	-12172
편으로	-12173
하기는	-12174
학교의	-12175
ical	-12176
rist	-12177
▁10%	-12178
▁2.0	-12179
▁30%	-12180
▁가족이	-12181
▁검찰에	-12182
▁경고를	-12183
▁경제를	-12184
▁계약의	-12185
▁고통을	-12186
▁공간을	-12187
▁국민이	-12188
▁국회에	-12189
▁글러브	-12190
▁기존에	-12191
▁나갔다	-12192
▁나뉘어	-12193
▁너무나	-12194
▁누구나	-12195
▁다음에	-12196
▁다이아	-12197
▁대가로	-12198
▁대회가	-12199
▁동명의	-12200
▁램지가	-12201
▁마리의	-12202
▁마스가	-12203
▁몇명의	-12204
▁문제와	-12205
▁미래의	-12206
▁믿었다	-12207
▁방문해	-12208
▁밴쿠버	-12209
▁보즈네	-12210
▁부정적	-12211
▁사상의	-12212
▁새끼를	-12213
▁생명의	-12214
▁수명은	-12215
▁스톤을	-12216
▁스피드	-12217
▁시기를	-12218
▁시장은	-12219
▁실시간	-12220
▁아니면	-12221
▁아들로	-12222
▁아유는	-12223
▁연예인	-12224
▁유학생	-12225
▁윤미래	-12226
▁이론이	-12227
▁일었다	-12228
▁일으킬	-12229
▁입단한	-12230
▁있다며	-12231
▁작가의	-12232
▁잡았다	-12233
▁장악한	-12234
▁전체에	-12235
▁전투에	-12236
▁지정된	-12237
▁집필한	-12238
▁천황의	-12239
▁체포된	-12240
▁클래식	-12241
▁타자로	-12242
▁해달의	-12243
▁현실을	-12244
▁히데요	-12245
ivers	-12246
onder	-12247
▁5.16	-12248
▁교통사고	-12249
▁누구였나	-12250
▁되었지만	-12251
▁비슷하게	-12252
▁서울지방	-12253
▁선고받은	-12254
▁아이들을	-12255
▁아이들이	-12256
▁알려지지	-12257
▁압도적인	-12258
▁위원회의	-12259
▁정책으로	-12260
▁조선총독	-12261
▁중에서는	-12262
▁지원하는	-12263
▁차지하며	-12264
▁트레이닝	-12265
▁학생들은	-12266
▁학생들이	-12267
▁학자들이	-12268
▁함부르크	-12269
▁함으로써	-12270
▁홈페이지	-12271
▁계속되었다	-12272
▁데시데리우	-12273
▁부분적으로	-12274
▁스피어스가	-12275
▁인도네시아	-12276
▁전체적으로	-12277
▁직접적으로	-12278
▁통합진보당	-12279
▁포켓몬스터	-12280
▁필로포이멘	-12281
▁일반상대론의	-12282
▁스피드스케이팅	-12283
▁스테고사우루스의	-12284
(3	-12285
-5	-12286
92	-12287
Hz	-12288
II	-12289
RO	-12290
by	-12291
oo	-12292
yl	-12293
▁룸	-12294
▁잎	-12295
▁탤	-12296
고로	-12297
공립	-12298
내에	-12299
널티	-12300
네의	-12301
님의	-12302
라틴	-12303
롤라	-12304
료는	-12305
르며	-12306
르와	-12307
명인	-12308
바퀴	-12309
벌을	-12310
속을	-12311
수아	-12312
심리	-12313
여대	-12314
역과	-12315
운을	-12316
워치	-12317
있나	-12318
작가	-12319
전공	-12320
전시	-12321
주간	-12322
즈에	-12323
집단	-12324
집이	-12325
차원	-12326
트니	-12327
포트	-12328
▁1~	-12329
▁77	-12330
▁AV	-12331
▁IC	-12332
▁가창	-12333
▁갱신	-12334
▁고유	-12335
▁공과	-12336
▁관람	-12337
▁교섭	-12338
▁군수	-12339
▁군이	-12340
▁궁정	-12341
▁극동	-12342
▁근접	-12343
▁기고	-12344
▁김승	-12345
▁김해	-12346
▁깨달	-12347
▁나눈	-12348
▁농노	-12349
▁닛폰	-12350
▁단기	-12351
▁돌입	-12352
▁등용	-12353
▁때가	-12354
▁마광	-12355
▁미루	-12356
▁박도	-12357
▁배를	-12358
▁벌금	-12359
▁부하	-12360
▁뽑은	-12361
▁상공	-12362
▁신천	-12363
▁쌓아	-12364
▁쓰지	-12365
▁아울	-12366
▁알지	-12367
▁앨리	-12368
▁연행	-12369
▁오를	-12370
▁우측	-12371
▁원리	-12372
▁원천	-12373
▁위함	-12374
▁유시	-12375
▁이희	-12376
▁일각	-12377
▁자작	-12378
▁잘라	-12379
▁잠정	-12380
▁재배	-12381
▁제독	-12382
▁제압	-12383
▁제중	-12384
▁조카	-12385
▁주석	-12386
▁주파	-12387
▁지기	-12388
▁직면	-12389
▁참사	-12390
▁천안	-12391
▁초과	-12392
▁축출	-12393
▁측에	-12394
▁타디	-12395
▁한진	-12396
▁함대	-12397
▁햇볕	-12398
▁헌정	-12399
▁현송	-12400
▁히타	-12401
노스케	-12402
드리아	-12403
레스크	-12404
루살렘	-12405
문제를	-12406
브리아	-12407
왔는가	-12408
왔다고	-12409
운동이	-12410
이름은	-12411
품으로	-12412
협의회	-12413
화에서	-12414
회의가	-12415
▁갈수록	-12416
▁감옥에	-12417
▁거리에	-12418
▁건설을	-12419
▁경쟁을	-12420
▁과정이	-12421
▁교수로	-12422
▁국가와	-12423
▁그려진	-12424
▁김연아	-12425
▁나이로	-12426
▁내려가	-12427
▁넘어서	-12428
▁느끼게	-12429
▁당사자	-12430
▁둥지를	-12431
▁때로는	-12432
▁똑같은	-12433
▁라운드	-12434
▁레이다	-12435
▁루돌프	-12436
▁마이너	-12437
▁말부터	-12438
▁명칭이	-12439
▁무게는	-12440
▁미군이	-12441
▁방식의	-12442
▁배터리	-12443
▁베리는	-12444
▁병력이	-12445
▁보이스	-12446
▁분야에	-12447
▁산소를	-12448
▁슈트라	-12449
▁안전을	-12450
▁앨리스	-12451
▁엄격한	-12452
▁예컨대	-12453
▁오르게	-12454
▁은메달	-12455
▁의회가	-12456
▁일주일	-12457
▁죽음의	-12458
▁지적이	-12459
▁진행을	-12460
▁집회를	-12461
▁찾아볼	-12462
▁철학적	-12463
▁촬영한	-12464
▁최소한	-12465
▁측에서	-12466
▁탈당한	-12467
▁팀에서	-12468
▁판문점	-12469
▁패배를	-12470
▁패했다	-12471
▁포로로	-12472
▁포크볼	-12473
▁프라이	-12474
▁피하기	-12475
▁하노버	-12476
▁하려고	-12477
▁한계가	-12478
▁현대의	-12479
▁회장은	-12480
▁후사르	-12481
▁훌린은	-12482
경기연맹	-12483
▁TCAS	-12484
▁가필드는	-12485
▁게임에서	-12486
▁광범위한	-12487
▁국회의사	-12488
▁뉴욕에서	-12489
▁마르쿠스	-12490
▁벌어졌다	-12491
▁보고서를	-12492
▁보즈네센	-12493
▁브라이언	-12494
▁설치되어	-12495
▁스페인의	-12496
▁시점에서	-12497
▁의원들이	-12498
▁이후부터	-12499
▁일어났던	-12500
▁재판에서	-12501
▁전역에서	-12502
▁정상적인	-12503
▁제기했다	-12504
▁조건으로	-12505
▁참여하는	-12506
▁컬럼비아	-12507
▁투표에서	-12508
▁현장에서	-12509
▁결정하였다	-12510
▁경기에서는	-12511
▁나폴레옹의	-12512
▁매스스타트	-12513
▁소녀시대가	-12514
▁시작했는가	-12515
▁이집트에서	-12516
▁활동하였다	-12517
▁오스트레일리아청개구	-12518
HE	-12519
SS	-12520
nt	-12521
sp	-12522
▁갚	-12523
▁낫	-12524
▁룰	-12525
▁읍	-12526
가타	-12527
감과	-12528
검사	-12529
골어	-12530
관광	-12531
근이	-12532
다며	-12533
대행	-12534
두는	-12535
등급	-12536
뜨린	-12537
런트	-12538
레인	-12539
로동	-12540
로만	-12541
막을	-12542
모든	-12543
방이	-12544
배의	-12545
보위	-12546
분극	-12547
비행	-12548
심히	-12549
에의	-12550
음은	-12551
이도	-12552
준은	-12553
차와	-12554
테쓰	-12555
퍼센	-12556
풍의	-12557
허가	-12558
혁신	-12559
(20	-12560
ans	-12561
vol	-12562
▁.2	-12563
▁95	-12564
▁AR	-12565
▁Ed	-12566
▁가나	-12567
▁가마	-12568
▁가볍	-12569
▁각본	-12570
▁감안	-12571
▁갑옷	-12572
▁공안	-12573
▁교량	-12574
▁교원	-12575
▁군기	-12576
▁군을	-12577
▁규명	-12578
▁극중	-12579
▁김주	-12580
▁끝이	-12581
▁나갈	-12582
▁날려	-12583
▁납부	-12584
▁네오	-12585
▁대마	-12586
▁대칭	-12587
▁디젤	-12588
▁리비	-12589
▁만드	-12590
▁메타	-12591
▁모로	-12592
▁몸이	-12593
▁무척	-12594
▁민병	-12595
▁믿는	-12596
▁밀집	-12597
▁반납	-12598
▁발을	-12599
▁백상	-12600
▁버려	-12601
▁벤처	-12602
▁별주	-12603
▁보일	-12604
▁복수	-12605
▁부수	-12606
▁불명	-12607
▁산인	-12608
▁선의	-12609
▁설이	-12610
▁세대	-12611
▁세르	-12612
▁세속	-12613
▁수족	-12614
▁수중	-12615
▁스커	-12616
▁스콧	-12617
▁시점	-12618
▁심상	-12619
▁앤더	-12620
▁어업	-12621
▁역의	-12622
▁영락	-12623
▁온건	-12624
▁와인	-12625
▁이데	-12626
▁이북	-12627
▁재발	-12628
▁저택	-12629
▁정봉	-12630
▁주동	-12631
▁중복	-12632
▁집시	-12633
▁집안	-12634
▁채무	-12635
▁청원	-12636
▁청춘	-12637
▁출동	-12638
▁충주	-12639
▁취한	-12640
▁치매	-12641
▁커플	-12642
▁탐구	-12643
▁피를	-12644
▁한겨	-12645
▁한글	-12646
▁한달	-12647
▁해구	-12648
▁해수	-12649
▁햄릿	-12650
▁호이	-12651
▁회귀	-12652
되도록	-12653
레이드	-12654
미르의	-12655
월에서	-12656
주식회	-12657
투쟁을	-12658
land	-12659
ster	-12660
▁101	-12661
▁가입한	-12662
▁게릭은	-12663
▁결정된	-12664
▁공연한	-12665
▁구단은	-12666
▁그림을	-12667
▁기간을	-12668
▁기구는	-12669
▁기술이	-12670
▁기술적	-12671
▁남자의	-12672
▁남조선	-12673
▁내놓은	-12674
▁녹음을	-12675
▁능력은	-12676
▁니체는	-12677
▁닌텐도	-12678
▁당나라	-12679
▁대다수	-12680
▁대표를	-12681
▁라이트	-12682
▁런던의	-12683
▁로마를	-12684
▁마스의	-12685
▁말미암	-12686
▁무리가	-12687
▁볼티모	-12688
▁분석을	-12689
▁비용은	-12690
▁사실에	-12691
▁산리쿠	-12692
▁상에서	-12693
▁선공개	-12694
▁선포한	-12695
▁설명을	-12696
▁성매매	-12697
▁소련군	-12698
▁손바이	-12699
▁시위가	-12700
▁싱글을	-12701
▁아들은	-12702
▁아리아	-12703
▁아유가	-12704
▁애틀랜	-12705
▁에이스	-12706
▁역할이	-12707
▁연설을	-12708
▁왕국은	-12709
▁외환위	-12710
▁우간다	-12711
▁유마가	-12712
▁유지광	-12713
▁의미는	-12714
▁이은의	-12715
▁이이의	-12716
▁인원은	-12717
▁인정받	-12718
▁일부로	-12719
▁정상에	-12720
▁중간에	-12721
▁중요시	-12722
▁지식을	-12723
▁지진의	-12724
▁출전을	-12725
▁충돌이	-12726
▁취하고	-12727
▁카이퍼	-12728
▁표면의	-12729
▁피어선	-12730
▁해달이	-12731
▁헌법은	-12732
▁형식을	-12733
▁형태가	-12734
▁환경에	-12735
▁활성화	-12736
계에서는	-12737
국제공항	-12738
대상에서	-12739
보병사단	-12740
정상회담	-12741
▁1871	-12742
▁Will	-12743
▁개체수가	-12744
▁기록하여	-12745
▁김대중을	-12746
▁단과대학	-12747
▁동원하여	-12748
▁떨어지는	-12749
▁만들어낸	-12750
▁무대에서	-12751
▁물리학자	-12752
▁바뀌었다	-12753
▁불가능한	-12754
▁사용된다	-12755
▁시민단체	-12756
▁시스템이	-12757
▁실질적인	-12758
▁안정적인	-12759
▁언제일까	-12760
▁여주인공	-12761
▁유지하기	-12762
▁이휘소는	-12763
▁입장에서	-12764
▁주연으로	-12765
▁주장했던	-12766
▁집행유예	-12767
▁캄파니아	-12768
▁콜로라도	-12769
▁한국철도	-12770
▁혼즈비가	-12771
▁혼즈비는	-12772
▁활동했던	-12773
▁나폴레옹은	-12774
▁더불어민주	-12775
▁바르셀로나	-12776
▁스위프트가	-12777
▁에피소드가	-12778
▁에피소드는	-12779
▁일방적으로	-12780
▁자유한국당	-12781
▁파이어폭스	-12782
▁프랑스에서	-12783
▁프로젝트의	-12784
▁기록하였는가	-12785
▁대통령비서실	-12786
▁뮤직비디오를	-12787
▁펜실베이니아	-12788
▁대한민국에서는	-12789
))	-12790
4,	-12791
>,	-12792
DS	-12793
SE	-12794
▁『	-12795
▁곽	-12796
▁뷔	-12797
▁옵	-12798
▁젤	-12799
▁줬	-12800
▁텃	-12801
▁흙	-12802
간이	-12803
강과	-12804
경성	-12805
경영	-12806
광복	-12807
그가	-12808
기기	-12809
기자	-12810
네가	-12811
니를	-12812
대부	-12813
대왕	-12814
도사	-12815
됐던	-12816
락을	-12817
렉션	-12818
류로	-12819
르몬	-12820
무장	-12821
박한	-12822
방향	-12823
불가	-12824
브는	-12825
사범	-12826
수리	-12827
수소	-12828
쉽게	-12829
시위	-12830
실과	-12831
악기	-12832
야의	-12833
온다	-12834
워서	-12835
음과	-12836
의에	-12837
인숙	-12838
있게	-12839
지금	-12840
지전	-12841
진압	-12842
처의	-12843
취를	-12844
테러	-12845
파크	-12846
피카	-12847
해리	-12848
해방	-12849
히게	-12850
.1%	-12851
amp	-12852
uck	-12853
▁AC	-12854
▁AM	-12855
▁Ac	-12856
▁Go	-12857
▁kg	-12858
▁가부	-12859
▁각룡	-12860
▁개원	-12861
▁거야	-12862
▁게르	-12863
▁게리	-12864
▁격퇴	-12865
▁곡이	-12866
▁곡인	-12867
▁골프	-12868
▁공인	-12869
▁관장	-12870
▁김씨	-12871
▁난을	-12872
▁내게	-12873
▁돌출	-12874
▁동창	-12875
▁두툽	-12876
▁마라	-12877
▁마카	-12878
▁만민	-12879
▁말도	-12880
▁맥도	-12881
▁메살	-12882
▁면역	-12883
▁몽고	-12884
▁문건	-12885
▁물대	-12886
▁물에	-12887
▁믹싱	-12888
▁방침	-12889
▁배웠	-12890
▁복음	-12891
▁부부	-12892
▁상반	-12893
▁섬에	-12894
▁수성	-12895
▁숨어	-12896
▁시그	-12897
▁심슨	-12898
▁악기	-12899
▁애덤	-12900
▁연상	-12901
▁예약	-12902
▁유망	-12903
▁육성	-12904
▁일삼	-12905
▁일조	-12906
▁임관	-12907
▁임화	-12908
▁장편	-12909
▁적지	-12910
▁전경	-12911
▁정찰	-12912
▁주택	-12913
▁증축	-12914
▁창단	-12915
▁찾은	-12916
▁최규	-12917
▁최태	-12918
▁태종	-12919
▁트라	-12920
▁특급	-12921
▁판금	-12922
▁퍼시	-12923
▁푸른	-12924
▁품고	-12925
▁현직	-12926
▁혈통	-12927
▁호는	-12928
▁확고	-12929
▁획기	-12930
▁힘의	-12931
경찰서	-12932
관계에	-12933
교육을	-12934
기관의	-12935
되지는	-12936
레스는	-12937
미사일	-12938
방에서	-12939
시키려	-12940
였나요	-12941
우스를	-12942
층에서	-12943
케이션	-12944
훈련을	-12945
John	-12946
ears	-12947
▁AKA	-12948
▁ECW	-12949
▁PSI	-12950
▁개념이	-12951
▁건물은	-12952
▁경제의	-12953
▁경제학	-12954
▁공동체	-12955
▁관광객	-12956
▁관리를	-12957
▁관직을	-12958
▁광종이	-12959
▁국내외	-12960
▁극심한	-12961
▁기준을	-12962
▁나라가	-12963
▁나폴리	-12964
▁노동당	-12965
▁대사를	-12966
▁독립된	-12967
▁돌연변	-12968
▁로저스	-12969
▁리그의	-12970
▁만나는	-12971
▁만점에	-12972
▁모델은	-12973
▁무료로	-12974
▁무리를	-12975
▁밀접한	-12976
▁반유대	-12977
▁발간한	-12978
▁밝히며	-12979
▁변호인	-12980
▁부담을	-12981
▁부지를	-12982
▁비판도	-12983
▁사기가	-12984
▁사태를	-12985
▁사회당	-12986
▁삼았다	-12987
▁소리가	-12988
▁수성의	-12989
▁시도를	-12990
▁시작해	-12991
▁싸이의	-12992
▁않다는	-12993
▁어렸을	-12994
▁연기에	-12995
▁영국에	-12996
▁용어를	-12997
▁음반에	-12998
▁의정부	-12999
▁의회는	-13000
▁이뤄진	-13001
▁자기가	-13002
▁자살한	-13003
▁전반에	-13004
▁정착한	-13005
▁제정된	-13006
▁조언을	-13007
▁조정을	-13008
▁지목한	-13009
▁진화의	-13010
▁차이나	-13011
▁커리어	-13012
▁크기의	-13013
▁크로스	-13014
▁태양이	-13015
▁편이다	-13016
▁폴링이	-13017
▁표현은	-13018
▁황제에	-13019
▁히로부	-13020
리그에서	-13021
전문대학	-13022
학적으로	-13023
▁1915	-13024
▁PAOK	-13025
▁기간동안	-13026
▁기록하는	-13027
▁내놓았다	-13028
▁돌아가는	-13029
▁드래프트	-13030
▁런던에서	-13031
▁미드필더	-13032
▁받았으나	-13033
▁방지하기	-13034
▁법과대학	-13035
▁베이스볼	-13036
▁부드러운	-13037
▁북쪽으로	-13038
▁블레이크	-13039
▁사용했던	-13040
▁삼엽충의	-13041
▁선수들은	-13042
▁설명하고	-13043
▁시작된다	-13044
▁시청률은	-13045
▁아시카가	-13046
▁않았다는	-13047
▁이번에는	-13048
▁진행되는	-13049
▁체포되어	-13050
▁캐나다의	-13051
▁쿠데타를	-13052
▁태양계의	-13053
▁포기하고	-13054
▁포함하고	-13055
▁표현했다	-13056
▁하지원이	-13057
리투아니아	-13058
주의자들은	-13059
▁공개되었다	-13060
▁공개적으로	-13061
▁과학자들은	-13062
▁대표적으로	-13063
▁동남아시아	-13064
▁신한청년당	-13065
▁실질적으로	-13066
▁실패하였다	-13067
▁자연스럽게	-13068
▁필요하다고	-13069
▁헤이우드는	-13070
▁10,000	-13071
▁라부아지에가	-13072
▁삼지연관현악	-13073
63	-13074
68	-13075
BK	-13076
▁≪	-13077
▁꽂	-13078
▁닐	-13079
▁붐	-13080
▁엇	-13081
▁엣	-13082
▁옴	-13083
▁챙	-13084
▁텐	-13085
▁푹	-13086
감은	-13087
결과	-13088
결합	-13089
경주	-13090
구나	-13091
끔찍	-13092
니언	-13093
디에	-13094
루타	-13095
름이	-13096
리던	-13097
릴라	-13098
망이	-13099
미스	-13100
바닥	-13101
반도	-13102
부르	-13103
비오	-13104
살의	-13105
심에	-13106
옥이	-13107
원칙	-13108
자도	-13109
자문	-13110
지아	-13111
청에	-13112
쳤던	-13113
트레	-13114
파르	-13115
합작	-13116
해는	-13117
협약	-13118
화문	-13119
ean	-13120
ely	-13121
fer	-13122
ite	-13123
ome	-13124
ont	-13125
▁71	-13126
▁81	-13127
▁98	-13128
▁Am	-13129
▁La	-13130
▁Ne	-13131
▁가결	-13132
▁강연	-13133
▁경력	-13134
▁규슈	-13135
▁그랬	-13136
▁기호	-13137
▁김한	-13138
▁내란	-13139
▁넘버	-13140
▁노인	-13141
▁당내	-13142
▁대치	-13143
▁동조	-13144
▁디아	-13145
▁딸의	-13146
▁땅에	-13147
▁면제	-13148
▁모범	-13149
▁바비	-13150
▁방남	-13151
▁배급	-13152
▁법에	-13153
▁불참	-13154
▁사사	-13155
▁사적	-13156
▁색채	-13157
▁서거	-13158
▁세로	-13159
▁센트	-13160
▁속의	-13161
▁수렴	-13162
▁수아	-13163
▁스릴	-13164
▁스핀	-13165
▁시가	-13166
▁신중	-13167
▁심화	-13168
▁아길	-13169
▁알츠	-13170
▁어거	-13171
▁여진	-13172
▁오웬	-13173
▁완봉	-13174
▁원형	-13175
▁은하	-13176
▁이륜	-13177
▁이의	-13178
▁이한	-13179
▁입양	-13180
▁자국	-13181
▁장갑	-13182
▁장려	-13183
▁장진	-13184
▁재즈	-13185
▁전담	-13186
▁전북	-13187
▁점에	-13188
▁쫓아	-13189
▁차기	-13190
▁초고	-13191
▁침투	-13192
▁컴퍼	-13193
▁테일	-13194
▁평정	-13195
▁표를	-13196
▁플랫	-13197
▁호수	-13198
▁훈장	-13199
▁휴식	-13200
관계가	-13201
나에서	-13202
러시아	-13203
로이드	-13204
미디어	-13205
시간은	-13206
임에도	-13207
자금을	-13208
진에게	-13209
쳤는가	-13210
페르니	-13211
했을때	-13212
홈런을	-13213
▁2-1	-13214
▁가난한	-13215
▁가사를	-13216
▁감염된	-13217
▁거뒀다	-13218
▁걸렸다	-13219
▁계약한	-13220
▁공격은	-13221
▁공부를	-13222
▁관계로	-13223
▁교회에	-13224
▁구데리	-13225
▁귀국한	-13226
▁녹음한	-13227
▁대표의	-13228
▁도시에	-13229
▁두툽상	-13230
▁드러내	-13231
▁뜨거운	-13232
▁리믹스	-13233
▁마을을	-13234
▁멤버로	-13235
▁명령한	-13236
▁모았다	-13237
▁모양을	-13238
▁물러난	-13239
▁민중총	-13240
▁박영효	-13241
▁반응은	-13242
▁발언에	-13243
▁밝히고	-13244
▁보고를	-13245
▁본선에	-13246
▁부위는	-13247
▁분노를	-13248
▁사과를	-13249
▁서사시	-13250
▁선거인	-13251
▁수도를	-13252
▁수표의	-13253
▁슈테판	-13254
▁시화호	-13255
▁아랍어	-13256
▁역사의	-13257
▁열심히	-13258
▁예수의	-13259
▁오바마	-13260
▁왕위에	-13261
▁위험을	-13262
▁유리한	-13263
▁유전형	-13264
▁음악과	-13265
▁의사결	-13266
▁이성질	-13267
▁이우의	-13268
▁이해찬	-13269
▁인식이	-13270
▁장원삼	-13271
▁저술한	-13272
▁전세계	-13273
▁전태일	-13274
▁점이다	-13275
▁정상을	-13276
▁정치인	-13277
▁정해진	-13278
▁제국을	-13279
▁조현병	-13280
▁집단의	-13281
▁철저히	-13282
▁칭호를	-13283
▁코리아	-13284
▁토르는	-13285
▁판타지	-13286
▁포이어	-13287
▁표면을	-13288
▁프로토	-13289
▁플라즈	-13290
▁합니다	-13291
▁혼란을	-13292
▁홀로코	-13293
▁활발한	-13294
▁황위를	-13295
▁회색늑	-13296
학교에서	-13297
▁1896	-13298
▁강조하는	-13299
▁거치면서	-13300
▁게스트로	-13301
▁그러면서	-13302
▁나가사키	-13303
▁대학교에	-13304
▁대학으로	-13305
▁동성애자	-13306
▁못하도록	-13307
▁무시하고	-13308
▁사랑하는	-13309
▁사용하게	-13310
▁설치하고	-13311
▁수단으로	-13312
▁수상하며	-13313
▁아마추어	-13314
▁아버지인	-13315
▁안창호가	-13316
▁안철수의	-13317
▁않겠다고	-13318
▁않았으나	-13319
▁야마우치	-13320
▁여론조사	-13321
▁예정이다	-13322
▁올스타전	-13323
▁요코하마	-13324
▁위키백과	-13325
▁임진왜란	-13326
▁전쟁으로	-13327
▁제목으로	-13328
▁중국으로	-13329
▁총대주교	-13330
▁파견하여	-13331
▁페더러가	-13332
▁페더러는	-13333
▁하세가와	-13334
▁한성부민	-13335
▁후쿠오카	-13336
▁기록했는가	-13337
▁베이비복스	-13338
▁사용하였다	-13339
▁알츠하이머	-13340
▁줄어들었다	-13341
▁포이어바흐	-13342
▁프로젝트는	-13343
▁시작되었는가	-13344
▁아르키메데스가	-13345
)〉	-13346
76	-13347
AC	-13348
Bl	-13349
DE	-13350
LL	-13351
py	-13352
▁y	-13353
▁괜	-13354
▁돔	-13355
▁딕	-13356
▁룩	-13357
▁맘	-13358
▁얀	-13359
▁퀴	-13360
가리	-13361
가장	-13362
강한	-13363
구성	-13364
기소	-13365
로이	-13366
료로	-13367
미쓰	-13368
민을	-13369
복음	-13370
빙상	-13371
사법	-13372
사추	-13373
색의	-13374
섬유	-13375
션의	-13376
수단	-13377
스런	-13378
스틸	-13379
시록	-13380
신인	-13381
온을	-13382
올로	-13383
외교	-13384
의정	-13385
의학	-13386
천명	-13387
철의	-13388
치료	-13389
컴퍼	-13390
킨스	-13391
토록	-13392
파괴	-13393
편을	-13394
프에	-13395
플러	-13396
하길	-13397
하시	-13398
헌법	-13399
-10	-13400
.7%	-13401
ane	-13402
ern	-13403
ina	-13404
lor	-13405
ord	-13406
orm	-13407
oth	-13408
uch	-13409
ute	-13410
▁Ex	-13411
▁Up	-13412
▁가맹	-13413
▁가한	-13414
▁과시	-13415
▁구니	-13416
▁날씨	-13417
▁남침	-13418
▁도심	-13419
▁도주	-13420
▁돈이	-13421
▁동굴	-13422
▁동서	-13423
▁동요	-13424
▁동점	-13425
▁드는	-13426
▁드문	-13427
▁랜드	-13428
▁로켓	-13429
▁루터	-13430
▁리지	-13431
▁많고	-13432
▁메갈	-13433
▁명성	-13434
▁목욕	-13435
▁무늬	-13436
▁물건	-13437
▁버튼	-13438
▁번갈	-13439
▁범위	-13440
▁법의	-13441
▁보증	-13442
▁분해	-13443
▁비즈	-13444
▁빨라	-13445
▁사토	-13446
▁상담	-13447
▁상속	-13448
▁선물	-13449
▁성벽	-13450
▁성숙	-13451
▁소뇌	-13452
▁소실	-13453
▁쇼핑	-13454
▁수면	-13455
▁수업	-13456
▁수임	-13457
▁시호	-13458
▁실업	-13459
▁심의	-13460
▁암석	-13461
▁야간	-13462
▁양식	-13463
▁연못	-13464
▁울음	-13465
▁윤석	-13466
▁이규	-13467
▁이방	-13468
▁이천	-13469
▁잃게	-13470
▁임용	-13471
▁작고	-13472
▁즈음	-13473
▁지위	-13474
▁지중	-13475
▁진영	-13476
▁천도	-13477
▁최후	-13478
▁칼륨	-13479
▁커넥	-13480
▁타원	-13481
▁퇴진	-13482
▁퍼센	-13483
▁피에	-13484
▁피플	-13485
▁하타	-13486
▁학대	-13487
▁한자	-13488
▁호응	-13489
▁횡령	-13490
▁흥분	-13491
▁힘은	-13492
급으로	-13493
더스트	-13494
문으로	-13495
사단을	-13496
상적인	-13497
자리를	-13498
카이도	-13499
하기가	-13500
함으로	-13501
▁303	-13502
▁90%	-13503
▁CEO	-13504
▁FTA	-13505
▁KTX	-13506
▁NHK	-13507
▁가설은	-13508
▁가족과	-13509
▁가족은	-13510
▁거라고	-13511
▁게이오	-13512
▁게이트	-13513
▁결정에	-13514
▁경제성	-13515
▁국가로	-13516
▁국적을	-13517
▁규정을	-13518
▁기대를	-13519
▁기준은	-13520
▁기초로	-13521
▁김재규	-13522
▁넘어가	-13523
▁놀라운	-13524
▁높으신	-13525
▁니콜라	-13526
▁다리를	-13527
▁대법원	-13528
▁대학원	-13529
▁돌아간	-13530
▁동아리	-13531
▁레닌이	-13532
▁말까지	-13533
▁민족의	-13534
▁반응이	-13535
▁발표를	-13536
▁베리의	-13537
▁별도로	-13538
▁보도가	-13539
▁보이즈	-13540
▁북유럽	-13541
▁브레이	-13542
▁브리튼	-13543
▁사건과	-13544
▁사업은	-13545
▁상업적	-13546
▁생각에	-13547
▁서유럽	-13548
▁설치를	-13549
▁성인이	-13550
▁송나라	-13551
▁수업을	-13552
▁수학적	-13553
▁순위를	-13554
▁스테이	-13555
▁시청자	-13556
▁시행된	-13557
▁신입생	-13558
▁아이튠	-13559
▁안보리	-13560
▁안전한	-13561
▁알프레	-13562
▁야구를	-13563
▁언어의	-13564
▁에트루	-13565
▁연락을	-13566
▁영역은	-13567
▁왕건은	-13568
▁이사장	-13569
▁인물을	-13570
▁인민군	-13571
▁자신도	-13572
▁전원이	-13573
▁제국은	-13574
▁주위의	-13575
▁죽음에	-13576
▁지배를	-13577
▁지휘를	-13578
▁질문을	-13579
▁청교도	-13580
▁최근의	-13581
▁출신인	-13582
▁친구인	-13583
▁쿰스는	-13584
▁크기가	-13585
▁키예프	-13586
▁판금갑	-13587
▁페널티	-13588
▁폭스는	-13589
▁피에르	-13590
▁해결을	-13591
▁헌법에	-13592
▁확률이	-13593
▁황위에	-13594
▁회사를	-13595
▁흥미를	-13596
ution	-13597
▁1600	-13598
▁거부했다	-13599
▁건강보험	-13600
▁공격으로	-13601
▁공격하여	-13602
▁그리스어	-13603
▁김정은이	-13604
▁내용으로	-13605
▁대선후보	-13606
▁동아일보	-13607
▁말미암아	-13608
▁발생하자	-13609
▁부르기도	-13610
▁비난했다	-13611
▁사람들과	-13612
▁센티미터	-13613
▁소유하고	-13614
▁수준으로	-13615
▁시즌에는	-13616
▁실패하고	-13617
▁아름다운	-13618
▁앨범으로	-13619
▁여기에서	-13620
▁역사학자	-13621
▁영향력이	-13622
▁예루살렘	-13623
▁육영재단	-13624
▁이때부터	-13625
▁이루었다	-13626
▁이상으로	-13627
▁장기하가	-13628
▁제외하면	-13629
▁조선시대	-13630
▁조성민의	-13631
▁진행되고	-13632
▁추정된다	-13633
▁황교안은	-13634
▁1,500	-13635
▁Music	-13636
▁Night	-13637
▁데뷔하였다	-13638
▁설명하였다	-13639
▁스테고케라	-13640
▁스토리보드	-13641
▁이루어지고	-13642
▁진행하였다	-13643
▁평창올림픽	-13644
▁유럽찌르레기는	-13645
)”	-13646
?”	-13647
AI	-13648
ED	-13649
Pa	-13650
ck	-13651
▁넬	-13652
▁뮌	-13653
▁쏜	-13654
▁톨	-13655
▁홋	-13656
가게	-13657
각류	-13658
간을	-13659
고지	-13660
까요	-13661
녀의	-13662
대첩	-13663
동계	-13664
랐던	-13665
레도	-13666
만장	-13667
바지	-13668
버려	-13669
보증	-13670
브레	-13671
살에	-13672
신에	-13673
아래	-13674
연평	-13675
우에	-13676
익을	-13677
전함	-13678
절에	-13679
졌기	-13680
책이	-13681
티드	-13682
파냐	-13683
풀이	-13684
하르	-13685
한테	-13686
해석	-13687
.8%	-13688
hen	-13689
ict	-13690
ike	-13691
▁91	-13692
▁Is	-13693
▁YG	-13694
▁개국	-13695
▁개업	-13696
▁격렬	-13697
▁겪고	-13698
▁관저	-13699
▁군단	-13700
▁규범	-13701
▁근교	-13702
▁기아	-13703
▁길게	-13704
▁길버	-13705
▁김구	-13706
▁김민	-13707
▁김홍	-13708
▁깨끗	-13709
▁끝날	-13710
▁나눌	-13711
▁남미	-13712
▁네버	-13713
▁노란	-13714
▁동경	-13715
▁리패	-13716
▁마테	-13717
▁만일	-13718
▁맞고	-13719
▁맹순	-13720
▁멀티	-13721
▁몇대	-13722
▁모치	-13723
▁무안	-13724
▁문명	-13725
▁보게	-13726
▁본진	-13727
▁부착	-13728
▁부추	-13729
▁분은	-13730
▁비대	-13731
▁사나	-13732
▁상하	-13733
▁선동	-13734
▁소모	-13735
▁수직	-13736
▁싸운	-13737
▁야전	-13738
▁얻지	-13739
▁에른	-13740
▁에우	-13741
▁열대	-13742
▁영업	-13743
▁오펜	-13744
▁용병	-13745
▁우병	-13746
▁운반	-13747
▁유통	-13748
▁유한	-13749
▁이겨	-13750
▁이반	-13751
▁인피	-13752
▁일리	-13753
▁자란	-13754
▁작센	-13755
▁전당	-13756
▁정민	-13757
▁정해	-13758
▁정황	-13759
▁제보	-13760
▁조재	-13761
▁주자	-13762
▁증진	-13763
▁차가	-13764
▁치루	-13765
▁치르	-13766
▁터널	-13767
▁트럭	-13768
▁팔로	-13769
▁편곡	-13770
▁평민	-13771
▁포수	-13772
▁포유	-13773
▁풍부	-13774
▁플랜	-13775
▁하코	-13776
▁해의	-13777
▁흔한	-13778
가들은	-13779
달러를	-13780
디스크	-13781
라시아	-13782
로에서	-13783
마르크	-13784
바이러	-13785
박근혜	-13786
상대책	-13787
시간에	-13788
어지고	-13789
어지는	-13790
전까지	-13791
지느러	-13792
책으로	-13793
타점을	-13794
하지도	-13795
했음을	-13796
(200	-13797
-200	-13798
~200	-13799
▁ATP	-13800
▁Car	-13801
▁tvN	-13802
▁가까워	-13803
▁가라앉	-13804
▁가량의	-13805
▁가족을	-13806
▁각지의	-13807
▁감독과	-13808
▁건너가	-13809
▁것인지	-13810
▁게이지	-13811
▁겪었다	-13812
▁결승에	-13813
▁경찰청	-13814
▁경향을	-13815
▁고구려	-13816
▁고양이	-13817
▁고종의	-13818
▁공화당	-13819
▁과도한	-13820
▁구단의	-13821
▁국왕은	-13822
▁군대에	-13823
▁그다지	-13824
▁그래픽	-13825
▁기간이	-13826
▁기관의	-13827
▁나치의	-13828
▁노르만	-13829
▁논의를	-13830
▁논쟁을	-13831
▁누구도	-13832
▁느꼈다	-13833
▁느끼는	-13834
▁다이어	-13835
▁당국은	-13836
▁동맹의	-13837
▁동원해	-13838
▁되어야	-13839
▁로베르	-13840
▁멜로디	-13841
▁모리스	-13842
▁못하여	-13843
▁무기는	-13844
▁물질을	-13845
▁미군의	-13846
▁밝혔고	-13847
▁법원은	-13848
▁병원에	-13849
▁보내고	-13850
▁북한군	-13851
▁불렀던	-13852
▁비중이	-13853
▁사업에	-13854
▁사용이	-13855
▁사이먼	-13856
▁상원의	-13857
▁선거가	-13858
▁소개한	-13859
▁속한다	-13860
▁스타는	-13861
▁신주쿠	-13862
▁싱글이	-13863
▁언론인	-13864
▁없었기	-13865
▁에드거	-13866
▁여기는	-13867
▁여론이	-13868
▁연이어	-13869
▁염두에	-13870
▁올리고	-13871
▁요인은	-13872
▁우수한	-13873
▁워드는	-13874
▁원래의	-13875
▁원리를	-13876
▁원칙을	-13877
▁이우가	-13878
▁이주한	-13879
▁일본군	-13880
▁자국의	-13881
▁작전의	-13882
▁장군의	-13883
▁장성택	-13884
▁전제로	-13885
▁전통을	-13886
▁정보가	-13887
▁제작을	-13888
▁주어진	-13889
▁지었다	-13890
▁지위는	-13891
▁찌르레	-13892
▁찾아와	-13893
▁채널을	-13894
▁추천한	-13895
▁콘텐츠	-13896
▁크로아	-13897
▁클라이	-13898
▁클레멘	-13899
▁통치를	-13900
▁투수로	-13901
▁트로피	-13902
▁팔꿈치	-13903
▁페트로	-13904
▁프로덕	-13905
▁플라티	-13906
▁하겠다	-13907
▁하도록	-13908
▁하루에	-13909
▁한계를	-13910
▁함대는	-13911
▁현송월	-13912
▁회원이	-13913
노동조합	-13914
대중음악	-13915
위원회에	-13916
지역에서	-13917
플레이야	-13918
했습니다	-13919
했음에도	-13920
▁Life	-13921
▁것입니다	-13922
▁결혼식을	-13923
▁국무위원	-13924
▁김연아의	-13925
▁다케모토	-13926
▁대변인은	-13927
▁도요토미	-13928
▁바그너의	-13929
▁방송국은	-13930
▁방송사는	-13931
▁보여주고	-13932
▁서쪽으로	-13933
▁선수들의	-13934
▁신노스케	-13935
▁심사위원	-13936
▁싱가포르	-13937
▁아니지만	-13938
▁없었다고	-13939
▁에른스트	-13940
▁육군사관	-13941
▁융합과학	-13942
▁의과대학	-13943
▁인터넷에	-13944
▁일어나자	-13945
▁제시했다	-13946
▁주민들은	-13947
▁주인공은	-13948
▁카를로스	-13949
▁코페르니	-13950
▁터브먼의	-13951
▁환경영향	-13952
▁후임으로	-13953
▁나폴레옹이	-13954
▁다큐멘터리	-13955
▁받아들였다	-13956
▁방영되었다	-13957
▁브로드웨이	-13958
▁블라디미르	-13959
▁비스마르크	-13960
▁선출되었다	-13961
▁시작하였고	-13962
▁원더걸스는	-13963
▁일본에서는	-13964
▁적용되었다	-13965
▁차지했는가	-13966
▁프랑스군은	-13967
▁여우주연상을	-13968
▁한국대중음악	-13969
4)	-13970
6,	-13971
GO	-13972
IR	-13973
In	-13974
LC	-13975
▁갓	-13976
▁얇	-13977
▁퓨	-13978
각이	-13979
각형	-13980
결핵	-13981
광주	-13982
국장	-13983
난을	-13984
노조	-13985
니와	-13986
다의	-13987
다툼	-13988
돌이	-13989
동성	-13990
럴드	-13991
림은	-13992
모가	-13993
모노	-13994
미술	-13995
블럼	-13996
비시	-13997
살로	-13998
순은	-13999
슬로	-14000
슬리	-14001
시경	-14002
아무	-14003
염을	-14004
인증	-14005
작을	-14006
잠수	-14007
전략	-14008
죄로	-14009
준과	-14010
지사	-14011
천히	-14012
철은	-14013
초의	-14014
총을	-14015
코르	-14016
킥을	-14017
텔라	-14018
토는	-14019
토프	-14020
투르	-14021
투표	-14022
특히	-14023
티넘	-14024
ank	-14025
ley	-14026
ork	-14027
ult	-14028
▁2》	-14029
▁78	-14030
▁97	-14031
▁CC	-14032
▁CF	-14033
▁DS	-14034
▁Or	-14035
▁Wh	-14036
▁각국	-14037
▁간미	-14038
▁감마	-14039
▁강행	-14040
▁개월	-14041
▁경북	-14042
▁군부	-14043
▁권위	-14044
▁그릴	-14045
▁기둥	-14046
▁나간	-14047
▁니키	-14048
▁다녀	-14049
▁다중	-14050
▁단절	-14051
▁도루	-14052
▁도이	-14053
▁돌격	-14054
▁따온	-14055
▁떠날	-14056
▁떠났	-14057
▁라몬	-14058
▁마의	-14059
▁맞춘	-14060
▁매리	-14061
▁모금	-14062
▁모모	-14063
▁물의	-14064
▁백인	-14065
▁법인	-14066
▁베타	-14067
▁변환	-14068
▁병이	-14069
▁보름	-14070
▁복구	-14071
▁복용	-14072
▁부가	-14073
▁비준	-14074
▁사양	-14075
▁사장	-14076
▁사직	-14077
▁삶에	-14078
▁상세	-14079
▁생겼	-14080
▁서브	-14081
▁석탄	-14082
▁수반	-14083
▁습득	-14084
▁승하	-14085
▁시골	-14086
▁신약	-14087
▁신조	-14088
▁실은	-14089
▁심해	-14090
▁알마	-14091
▁양보	-14092
▁양심	-14093
▁어긋	-14094
▁엔딩	-14095
▁여긴	-14096
▁오고	-14097
▁온도	-14098
▁올콕	-14099
▁원동	-14100
▁원죄	-14101
▁유머	-14102
▁이완	-14103
▁이태	-14104
▁잔류	-14105
▁전락	-14106
▁전수	-14107
▁정서	-14108
▁좌석	-14109
▁주위	-14110
▁죽여	-14111
▁준수	-14112
▁줄여	-14113
▁쥬얼	-14114
▁지자	-14115
▁진공	-14116
▁질문	-14117
▁찾지	-14118
▁총재	-14119
▁출루	-14120
▁출소	-14121
▁탄원	-14122
▁터키	-14123
▁파는	-14124
▁판정	-14125
▁패트	-14126
▁폐막	-14127
▁포괄	-14128
▁플레	-14129
▁피고	-14130
▁필름	-14131
▁하퍼	-14132
▁학제	-14133
▁합계	-14134
▁해왕	-14135
▁했기	-14136
▁행진	-14137
▁호세	-14138
▁홍문	-14139
▁휩싸	-14140
▁흔적	-14141
강에서	-14142
그리스	-14143
기관은	-14144
니아를	-14145
들과는	-14146
루스와	-14147
마리가	-14148
바키아	-14149
색으로	-14150
스와프	-14151
스키의	-14152
스트는	-14153
신정변	-14154
았다는	-14155
연패를	-14156
왔으며	-14157
우라늄	-14158
작업을	-14159
지스톤	-14160
berg	-14161
▁1-0	-14162
▁Man	-14163
▁가네코	-14164
▁가벼운	-14165
▁갔는가	-14166
▁게임에	-14167
▁공격에	-14168
▁공로로	-14169
▁급속히	-14170
▁길이가	-14171
▁김규식	-14172
▁나가는	-14173
▁나타낸	-14174
▁노래로	-14175
▁논문은	-14176
▁대전이	-14177
▁동메달	-14178
▁따뜻한	-14179
▁먹는다	-14180
▁무장한	-14181
▁물러나	-14182
▁바다로	-14183
▁박물관	-14184
▁반발을	-14185
▁방법에	-14186
▁병으로	-14187
▁비율이	-14188
▁비행기	-14189
▁사드를	-14190
▁사이가	-14191
▁살해한	-14192
▁상황은	-14193
▁서울로	-14194
▁선수들	-14195
▁수립한	-14196
▁수행한	-14197
▁스릴러	-14198
▁시민의	-14199
▁실수를	-14200
▁싶다는	-14201
▁아라곤	-14202
▁아름다	-14203
▁약속한	-14204
▁얘기를	-14205
▁에픽하	-14206
▁여성은	-14207
▁여성을	-14208
▁영친왕	-14209
▁예산을	-14210
▁오하이	-14211
▁운동과	-14212
▁움직일	-14213
▁유로파	-14214
▁유엔군	-14215
▁의미의	-14216
▁의석을	-14217
▁이어진	-14218
▁이와테	-14219
▁이준용	-14220
▁일자리	-14221
▁장군은	-14222
▁장군이	-14223
▁전달한	-14224
▁절차를	-14225
▁제기된	-14226
▁제니퍼	-14227
▁제도의	-14228
▁젝스키	-14229
▁주기성	-14230
▁지금도	-14231
▁지나가	-14232
▁지어진	-14233
▁지역과	-14234
▁지휘한	-14235
▁질병의	-14236
▁책에서	-14237
▁천천히	-14238
▁천체가	-14239
▁초창기	-14240
▁타율은	-14241
▁토이트	-14242
▁팀으로	-14243
▁파괴된	-14244
▁페드로	-14245
▁폴링의	-14246
▁행동이	-14247
▁헌법개	-14248
▁협상이	-14249
▁협정을	-14250
▁황국의	-14251
과정에서	-14252
됨으로써	-14253
력발전소	-14254
▁1928	-14255
▁More	-14256
▁with	-14257
▁개념으로	-14258
▁김아랑은	-14259
▁대중문화	-14260
▁도쿠가와	-14261
▁동메달을	-14262
▁디자인을	-14263
▁러시아는	-14264
▁리패키지	-14265
▁머물렀다	-14266
▁뮤직뱅크	-14267
▁박신혜는	-14268
▁백상예술	-14269
▁부족으로	-14270
▁브로더릭	-14271
▁선언했다	-14272
▁송윤아가	-14273
▁순위에서	-14274
▁스웨덴의	-14275
▁어거스터	-14276
▁어느정도	-14277
▁얼굴들의	-14278
▁없었으며	-14279
▁엔지니어	-14280
▁여겨지는	-14281
▁인정받아	-14282
▁일어난다	-14283
▁종교적인	-14284
▁출전하여	-14285
▁특징이다	-14286
▁티베트의	-14287
▁파리강화	-14288
▁프랭클린	-14289
▁하였지만	-14290
▁결정되었다	-14291
▁고등학교는	-14292
▁발표되었다	-14293
▁상업적으로	-14294
▁제외하고는	-14295
▁주장했는가	-14296
▁크리스티나	-14297
▁프로그램에	-14298
▁현대자동차	-14299
▁천문학자들은	-14300
▁알로사우루스의	-14301
▁디스워오브마인에서	-14302
.[	-14303
91	-14304
:0	-14305
Al	-14306
uz	-14307
zy	-14308
▁낡	-14309
▁샐	-14310
▁왈	-14311
▁윙	-14312
▁킨	-14313
경과	-14314
그맨	-14315
그의	-14316
극장	-14317
달라	-14318
달을	-14319
두로	-14320
라르	-14321
레타	-14322
례로	-14323
류와	-14324
망에	-14325
모로	-14326
바의	-14327
발표	-14328
본이	-14329
부작	-14330
분열	-14331
상가	-14332
에미	-14333
온이	-14334
외선	-14335
요한	-14336
우기	-14337
으리	-14338
일라	-14339
장군	-14340
장치	-14341
조치	-14342
종인	-14343
초를	-14344
태가	-14345
토로	-14346
티의	-14347
푸르	-14348
품은	-14349
학위	-14350
함의	-14351
함파	-14352
후에	-14353
.25	-14354
601	-14355
FTA	-14356
int	-14357
ons	-14358
▁AU	-14359
▁GO	-14360
▁LA	-14361
▁Pl	-14362
▁So	-14363
▁is	-14364
▁갇혀	-14365
▁감추	-14366
▁강모	-14367
▁것일	-14368
▁결집	-14369
▁겸임	-14370
▁고마	-14371
▁고생	-14372
▁고시	-14373
▁곤란	-14374
▁국적	-14375
▁끔찍	-14376
▁나뉜	-14377
▁농구	-14378
▁느낄	-14379
▁니혼	-14380
▁다를	-14381
▁다툼	-14382
▁대수	-14383
▁듀얼	-14384
▁말고	-14385
▁매주	-14386
▁메릴	-14387
▁메탈	-14388
▁모친	-14389
▁몸무	-14390
▁박상	-14391
▁버벌	-14392
▁번호	-14393
▁별이	-14394
▁부리	-14395
▁부합	-14396
▁부회	-14397
▁비오	-14398
▁상주	-14399
▁선인	-14400
▁섭취	-14401
▁송중	-14402
▁쉽지	-14403
▁스맥	-14404
▁승계	-14405
▁실내	-14406
▁실존	-14407
▁심석	-14408
▁싸워	-14409
▁압력	-14410
▁앞뒤	-14411
▁엔토	-14412
▁연령	-14413
▁연산	-14414
▁열매	-14415
▁옛날	-14416
▁오비	-14417
▁올레	-14418
▁올바	-14419
▁왕을	-14420
▁용어	-14421
▁유아	-14422
▁육지	-14423
▁응시	-14424
▁의문	-14425
▁이광	-14426
▁이홍	-14427
▁임대	-14428
▁있겠	-14429
▁자행	-14430
▁전념	-14431
▁절약	-14432
▁조광	-14433
▁조립	-14434
▁주립	-14435
▁주일	-14436
▁주차	-14437
▁집계	-14438
▁짓는	-14439
▁채취	-14440
▁처분	-14441
▁최저	-14442
▁최지	-14443
▁추출	-14444
▁측의	-14445
▁캐시	-14446
▁탱탱	-14447
▁테레	-14448
▁테크	-14449
▁특집	-14450
▁파격	-14451
▁편에	-14452
▁포착	-14453
▁하마	-14454
▁하원	-14455
▁한인	-14456
▁합당	-14457
▁항일	-14458
▁협정	-14459
▁형을	-14460
▁혼혈	-14461
▁황실	-14462
▁황족	-14463
▁휘말	-14464
경으로	-14465
됐으며	-14466
들이다	-14467
라이터	-14468
량으로	-14469
로서는	-14470
루미늄	-14471
밀하게	-14472
바이벌	-14473
받는다	-14474
방으로	-14475
브리엘	-14476
사건을	-14477
사이클	-14478
소리를	-14479
시간이	-14480
연대는	-14481
왔는데	-14482
운동은	-14483
웨이의	-14484
제도의	-14485
판에서	-14486
협정을	-14487
ames	-14488
uman	-14489
▁341	-14490
▁USS	-14491
▁가격은	-14492
▁가족의	-14493
▁가지로	-14494
▁걸리는	-14495
▁결성된	-14496
▁경우를	-14497
▁계급은	-14498
▁계열의	-14499
▁공간이	-14500
▁교육부	-14501
▁교육의	-14502
▁국제적	-14503
▁권유로	-14504
▁권한이	-14505
▁그룹을	-14506
▁극도로	-14507
▁기능은	-14508
▁긴밀한	-14509
▁뉴욕에	-14510
▁단백질	-14511
▁대단히	-14512
▁대책을	-14513
▁데일리	-14514
▁도마뱀	-14515
▁독일은	-14516
▁독일을	-14517
▁등이다	-14518
▁딜런의	-14519
▁마르틴	-14520
▁메트로	-14521
▁명단에	-14522
▁모른다	-14523
▁미쳤다	-14524
▁박사가	-14525
▁방송은	-14526
▁범위를	-14527
▁법안을	-14528
▁변화는	-14529
▁보니파	-14530
▁봉기를	-14531
▁부족은	-14532
▁사용자	-14533
▁상대팀	-14534
▁센트럴	-14535
▁소속팀	-14536
▁스카이	-14537
▁아이가	-14538
▁아이의	-14539
▁안무를	-14540
▁안정을	-14541
▁않았을	-14542
▁연습을	-14543
▁영국군	-14544
▁영입한	-14545
▁온도는	-14546
▁완공된	-14547
▁유럽에	-14548
▁의무를	-14549
▁이끌던	-14550
▁이상한	-14551
▁인간과	-14552
▁일요일	-14553
▁자료에	-14554
▁자유와	-14555
▁작업한	-14556
▁전사한	-14557
▁전에는	-14558
▁접하고	-14559
▁정도를	-14560
▁정신적	-14561
▁증가한	-14562
▁지구에	-14563
▁직위는	-14564
▁진술을	-14565
▁집안의	-14566
▁창원시	-14567
▁최순실	-14568
▁태양은	-14569
▁테런스	-14570
▁토르가	-14571
▁토지를	-14572
▁투쟁을	-14573
▁펼쳐진	-14574
▁평화를	-14575
▁폭로한	-14576
▁폴타바	-14577
▁플라토	-14578
▁플라톤	-14579
▁행위에	-14580
롤라이나	-14581
스테이트	-14582
운동장애	-14583
ition	-14584
▁1800	-14585
▁1850	-14586
▁1885	-14587
▁Star	-14588
▁가브리엘	-14589
▁가상현실	-14590
▁가와사키	-14591
▁가족들은	-14592
▁감독직을	-14593
▁갑신정변	-14594
▁게오르크	-14595
▁국제적인	-14596
▁금지하는	-14597
▁담당하고	-14598
▁동쪽으로	-14599
▁들어가게	-14600
▁말하기를	-14601
▁받았다는	-14602
▁비슷하다	-14603
▁사람인가	-14604
▁살아남은	-14605
▁세드나가	-14606
▁속하는가	-14607
▁스맥다운	-14608
▁시리즈는	-14609
▁신분으로	-14610
▁아래에서	-14611
▁아버지를	-14612
▁아우스터	-14613
▁알렉산더	-14614
▁옹정제가	-14615
▁윌리엄스	-14616
▁있으면서	-14617
▁정확하게	-14618
▁주었는가	-14619
▁증가하고	-14620
▁증가했다	-14621
▁지도자는	-14622
▁처음부터	-14623
▁청와대는	-14624
▁팬들에게	-14625
▁퍼포먼스	-14626
▁포켓몬을	-14627
▁활동하던	-14628
▁구체적으로	-14629
▁국제적으로	-14630
▁브리트니가	-14631
▁사운드트랙	-14632
▁시작하면서	-14633
▁에피소드의	-14634
▁전통적으로	-14635
▁큰까마귀의	-14636
▁활동전위를	-14637
▁효과적으로	-14638
▁스튜디오에서	-14639
▁자유민주주의	-14640
▁프리드리히는	-14641
▁프리미어리그	-14642
▁힙합플레이야	-14643
▁오스트레일리아까치가	-14644
▁오스트레일리아까치는	-14645
!"	-14646
(4	-14647
SC	-14648
dd	-14649
mp	-14650
▁+	-14651
▁윗	-14652
▁찌	-14653
강이	-14654
교환	-14655
균관	-14656
네노	-14657
다리	-14658
동과	-14659
두를	-14660
둘러	-14661
라트	-14662
러드	-14663
명사	-14664
목이	-14665
바겐	-14666
반을	-14667
받게	-14668
방문	-14669
보통	-14670
브스	-14671
사기	-14672
설의	-14673
세종	-14674
속이	-14675
수정	-14676
스포	-14677
시피	-14678
식품	-14679
아우	-14680
업체	-14681
온의	-14682
윤리	-14683
이치	-14684
임의	-14685
전사	-14686
정기	-14687
조나	-14688
주인	-14689
준비	-14690
중대	-14691
즈키	-14692
진흥	-14693
책임	-14694
촉매	-14695
촉진	-14696
측의	-14697
카미	-14698
커가	-14699
토론	-14700
판사	-14701
포가	-14702
포와	-14703
항의	-14704
행사	-14705
행의	-14706
협상	-14707
혜공	-14708
.6%	-14709
gen	-14710
les	-14711
son	-14712
▁82	-14713
▁89	-14714
▁<<	-14715
▁CO	-14716
▁RA	-14717
▁Tr	-14718
▁간다	-14719
▁강대	-14720
▁같아	-14721
▁거세	-14722
▁것인	-14723
▁경순	-14724
▁공손	-14725
▁공학	-14726
▁괴롭	-14727
▁급증	-14728
▁김수	-14729
▁높여	-14730
▁놓은	-14731
▁대위	-14732
▁도핑	-14733
▁동명	-14734
▁동지	-14735
▁두꺼	-14736
▁들을	-14737
▁딤미	-14738
▁로리	-14739
▁많지	-14740
▁모멘	-14741
▁모색	-14742
▁모피	-14743
▁무지	-14744
▁문법	-14745
▁뮌헨	-14746
▁미노	-14747
▁미러	-14748
▁미소	-14749
▁바꿀	-14750
▁방정	-14751
▁법원	-14752
▁병에	-14753
▁보낼	-14754
▁보충	-14755
▁봉사	-14756
▁부당	-14757
▁부시	-14758
▁부의	-14759
▁불만	-14760
▁사마	-14761
▁사인	-14762
▁산둥	-14763
▁삼두	-14764
▁서남	-14765
▁섬을	-14766
▁성우	-14767
▁세네	-14768
▁술을	-14769
▁시어	-14770
▁신도	-14771
▁신부	-14772
▁실버	-14773
▁쓰나	-14774
▁씨가	-14775
▁아담	-14776
▁아바	-14777
▁암모	-14778
▁양무	-14779
▁양육	-14780
▁어류	-14781
▁엘런	-14782
▁여당	-14783
▁연수	-14784
▁오락	-14785
▁오삼	-14786
▁오퍼	-14787
▁옮겼	-14788
▁유연	-14789
▁유혹	-14790
▁윤보	-14791
▁으로	-14792
▁의석	-14793
▁이득	-14794
▁이자	-14795
▁이현	-14796
▁익숙	-14797
▁잉태	-14798
▁재벌	-14799
▁재차	-14800
▁적발	-14801
▁전액	-14802
▁정청	-14803
▁종을	-14804
▁주말	-14805
▁줄곧	-14806
▁직선	-14807
▁징계	-14808
▁참조	-14809
▁촉발	-14810
▁콜린	-14811
▁파산	-14812
▁판별	-14813
▁풍자	-14814
▁하려	-14815
▁하얀	-14816
▁해발	-14817
▁해킹	-14818
▁핵폭	-14819
▁헬레	-14820
▁화약	-14821
▁후백	-14822
그러나	-14823
내었다	-14824
능력을	-14825
라면서	-14826
빌라이	-14827
사람의	-14828
사추세	-14829
선언을	-14830
소프트	-14831
스타일	-14832
시키지	-14833
었나요	-14834
운드를	-14835
지역은	-14836
터미널	-14837
편성은	-14838
프레스	-14839
해야만	-14840
olle	-14841
ound	-14842
rich	-14843
▁1.5	-14844
▁40%	-14845
▁Res	-14846
▁가진다	-14847
▁가처분	-14848
▁개체가	-14849
▁건설한	-14850
▁검찰의	-14851
▁것들이	-14852
▁것이기	-14853
▁게릴라	-14854
▁관계의	-14855
▁광촉매	-14856
▁교도소	-14857
▁교황이	-14858
▁교회를	-14859
▁구조가	-14860
▁구조에	-14861
▁궤도가	-14862
▁남편의	-14863
▁노선영	-14864
▁느끼고	-14865
▁다케유	-14866
▁닥터의	-14867
▁담배를	-14868
▁답했다	-14869
▁당국이	-14870
▁대국민	-14871
▁던지는	-14872
▁덧붙여	-14873
▁돌파한	-14874
▁동로마	-14875
▁뒤에도	-14876
▁때에도	-14877
▁로즈가	-14878
▁마르가	-14879
▁마이애	-14880
▁먹이로	-14881
▁무라타	-14882
▁무역을	-14883
▁문서는	-14884
▁물건을	-14885
▁바다에	-14886
▁바르샤	-14887
▁발발한	-14888
▁붙여진	-14889
▁블루스	-14890
▁사고의	-14891
▁사망자	-14892
▁사형을	-14893
▁서울을	-14894
▁소설의	-14895
▁승리에	-14896
▁시설을	-14897
▁시장에	-14898
▁시행한	-14899
▁싸이는	-14900
▁아내의	-14901
▁아르메	-14902
▁아마도	-14903
▁아울러	-14904
▁안되는	-14905
▁압박을	-14906
▁여학생	-14907
▁연관이	-14908
▁올라온	-14909
▁요새를	-14910
▁요시노	-14911
▁요시모	-14912
▁위협이	-14913
▁일대의	-14914
▁정수장	-14915
▁제작진	-14916
▁조르주	-14917
▁존재로	-14918
▁중이다	-14919
▁지명을	-14920
▁지진은	-14921
▁차량은	-14922
▁차트에	-14923
▁창설된	-14924
▁채널은	-14925
▁채택된	-14926
▁총장이	-14927
▁출간한	-14928
▁칭호는	-14929
▁투입된	-14930
▁투표를	-14931
▁파일럿	-14932
▁패러다	-14933
▁패트릭	-14934
▁페르소	-14935
▁포인트	-14936
▁프로세	-14937
▁한국군	-14938
▁행사가	-14939
▁향하는	-14940
▁화학적	-14941
▁확정된	-14942
▁후속곡	-14943
▁휴식을	-14944
개월만에	-14945
되었음을	-14946
사회주의	-14947
소울실버	-14948
▁100%	-14949
▁Kore	-14950
▁ZARD	-14951
▁가즈토요	-14952
▁강제수용	-14953
▁개론에서	-14954
▁경선에서	-14955
▁기념하여	-14956
▁기자들이	-14957
▁기점으로	-14958
▁늘어났다	-14959
▁드라이브	-14960
▁들어가는	-14961
▁리얼리티	-14962
▁마스터스	-14963
▁박보검이	-14964
▁발견되지	-14965
▁벨라루스	-14966
▁불가리아	-14967
▁불가사의	-14968
▁블랙홀의	-14969
▁블랙홀이	-14970
▁소녀시대	-14971
▁스트라이	-14972
▁시도했다	-14973
▁시민들은	-14974
▁앨범에서	-14975
▁어시스트	-14976
▁에나쓰는	-14977
▁여기에는	-14978
▁오카자키	-14979
▁오클랜드	-14980
▁옹호하는	-14981
▁음반으로	-14982
▁의원들은	-14983
▁이전부터	-14984
▁이정희가	-14985
▁인종차별	-14986
▁인피니티	-14987
▁전달했다	-14988
▁전해진다	-14989
▁지구에서	-14990
▁최근에는	-14991
▁출신인가	-14992
▁출전했다	-14993
▁캐릭터가	-14994
▁클레멘스	-14995
▁터브먼이	-14996
▁트위터에	-14997
▁평론가는	-14998
▁프랑스어	-14999
▁허위사실	-15000
▁헌법재판	-15001
▁환경에서	-15002
엔터테인먼	-15003
▁긍정적으로	-15004
▁네덜란드의	-15005
▁맥그리거가	-15006
▁모터사이클	-15007
▁변경되었다	-15008
▁서아프리카	-15009
▁소프트웨어	-15010
▁스튜어트가	-15011
▁시작했으며	-15012
▁오버워치의	-15013
▁전반적으로	-15014
▁주장하는가	-15015
빙상경기연맹	-15016
여자고등학교	-15017
▁Wonder	-15018
▁룬트슈테트가	-15019
▁사지운동장애	-15020
▁언제부터인가	-15021
▁이루어졌는가	-15022
▁프리드리히가	-15023
▁유럽찌르레기를	-15024
▁오스트레일리아까치의	-15025
>(	-15026
>>	-15027
BM	-15028
DM	-15029
PS	-15030
RC	-15031
VE	-15032
up	-15033
▁`	-15034
▁–	-15035
▁딘	-15036
▁뭉	-15037
교와	-15038
그로	-15039
금과	-15040
네는	-15041
님을	-15042
더를	-15043
들턴	-15044
또는	-15045
렉스	-15046
망의	-15047
면은	-15048
반이	-15049
벤션	-15050
부족	-15051
비언	-15052
비홍	-15053
산성	-15054
산이	-15055
삼국	-15056
샤오	-15057
애틀	-15058
용군	-15059
윈터	-15060
점과	-15061
제인	-15062
질환	-15063
집중	-15064
추진	-15065
친우	-15066
클로	-15067
탄이	-15068
토와	-15069
프라	-15070
프턴	-15071
화물	-15072
회로	-15073
520	-15074
Mar	-15075
You	-15076
let	-15077
ody	-15078
org	-15079
ret	-15080
▁2~	-15081
▁CI	-15082
▁ch	-15083
▁각자	-15084
▁간단	-15085
▁거점	-15086
▁걸리	-15087
▁고든	-15088
▁공세	-15089
▁공천	-15090
▁과장	-15091
▁괜찮	-15092
▁구금	-15093
▁군에	-15094
▁굴복	-15095
▁그루	-15096
▁김여	-15097
▁나은	-15098
▁내무	-15099
▁낸시	-15100
▁노골	-15101
▁높고	-15102
▁놓여	-15103
▁뉴턴	-15104
▁니체	-15105
▁대가	-15106
▁덩어	-15107
▁도래	-15108
▁따서	-15109
▁딸을	-15110
▁딸인	-15111
▁로버	-15112
▁롱은	-15113
▁마린	-15114
▁마츠	-15115
▁맥락	-15116
▁먼지	-15117
▁모하	-15118
▁몽타	-15119
▁무비	-15120
▁미스	-15121
▁미하	-15122
▁밑에	-15123
▁박봄	-15124
▁박은	-15125
▁박찬	-15126
▁반군	-15127
▁반역	-15128
▁배의	-15129
▁벌여	-15130
▁변신	-15131
▁뽑아	-15132
▁성모	-15133
▁성체	-15134
▁소치	-15135
▁소형	-15136
▁손실	-15137
▁쇄국	-15138
▁수확	-15139
▁숙빈	-15140
▁슬픔	-15141
▁승무	-15142
▁시정	-15143
▁신생	-15144
▁신촌	-15145
▁쏘나	-15146
▁쓰기	-15147
▁아닐	-15148
▁아미	-15149
▁안쪽	-15150
▁알앤	-15151
▁앞둔	-15152
▁에글	-15153
▁에릭	-15154
▁왕권	-15155
▁용산	-15156
▁우회	-15157
▁운항	-15158
▁유관	-15159
▁유년	-15160
▁유언	-15161
▁윤리	-15162
▁윤성	-15163
▁응급	-15164
▁의정	-15165
▁이산	-15166
▁인질	-15167
▁임종	-15168
▁재팬	-15169
▁전멸	-15170
▁전무	-15171
▁절차	-15172
▁정유	-15173
▁좌표	-15174
▁죽어	-15175
▁증여	-15176
▁지녔	-15177
▁지브	-15178
▁지표	-15179
▁지혜	-15180
▁초빙	-15181
▁최강	-15182
▁출국	-15183
▁칫소	-15184
▁칼뱅	-15185
▁캐럴	-15186
▁콜롬	-15187
▁키스	-15188
▁키케	-15189
▁태워	-15190
▁투명	-15191
▁티저	-15192
▁포식	-15193
▁피할	-15194
▁한승	-15195
▁해인	-15196
▁호의	-15197
과정을	-15198
년대의	-15199
놓았다	-15200
달라는	-15201
대사로	-15202
등으로	-15203
레이터	-15204
리어스	-15205
민들은	-15206
서비스	-15207
세계의	-15208
소송을	-15209
연평해	-15210
이닝을	-15211
있다고	-15212
자라는	-15213
전쟁이	-15214
프에서	-15215
하게된	-15216
합니까	-15217
해왔다	-15218
olog	-15219
▁123	-15220
▁Let	-15221
▁Vol	-15222
▁가설을	-15223
▁가져다	-15224
▁각국의	-15225
▁강의를	-15226
▁거기서	-15227
▁경로를	-15228
▁경전철	-15229
▁경혜공	-15230
▁계층은	-15231
▁고종이	-15232
▁공화정	-15233
▁구속된	-15234
▁그만큼	-15235
▁글로브	-15236
▁나타났	-15237
▁내부에	-15238
▁노래가	-15239
▁다니는	-15240
▁다음해	-15241
▁단계를	-15242
▁대도시	-15243
▁대학을	-15244
▁독일어	-15245
▁돌려보	-15246
▁동대문	-15247
▁득표율	-15248
▁딜런은	-15249
▁뚜렷한	-15250
▁로마가	-15251
▁로이킴	-15252
▁마르세	-15253
▁만주족	-15254
▁말다툼	-15255
▁머리가	-15256
▁명예를	-15257
▁명확한	-15258
▁문서를	-15259
▁문화와	-15260
▁미끄러	-15261
▁발매해	-15262
▁방어를	-15263
▁배우의	-15264
▁변경된	-15265
▁변경한	-15266
▁병력은	-15267
▁보였고	-15268
▁불리던	-15269
▁불리한	-15270
▁비율을	-15271
▁뿌리를	-15272
▁사람과	-15273
▁사실로	-15274
▁사진이	-15275
▁서신을	-15276
▁소련은	-15277
▁손상을	-15278
▁수도인	-15279
▁수준을	-15280
▁승부차	-15281
▁아닌가	-15282
▁않아서	-15283
▁앤더슨	-15284
▁언급된	-15285
▁없으나	-15286
▁에이브	-15287
▁여의도	-15288
▁연주를	-15289
▁오스틴	-15290
▁옮겼다	-15291
▁왕조는	-15292
▁외교부	-15293
▁요인이	-15294
▁유럽과	-15295
▁이르게	-15296
▁자세히	-15297
▁작성된	-15298
▁장관이	-15299
▁장치를	-15300
▁재직한	-15301
▁저지른	-15302
▁점성술	-15303
▁정당을	-15304
▁정의당	-15305
▁조선인	-15306
▁조약의	-15307
▁조약이	-15308
▁주도로	-15309
▁죽였다	-15310
▁죽임을	-15311
▁중심에	-15312
▁지명된	-15313
▁지방을	-15314
▁질량을	-15315
▁차이는	-15316
▁천체의	-15317
▁청해진	-15318
▁총독부	-15319
▁충남방	-15320
▁크레타	-15321
▁태풍의	-15322
▁투수가	-15323
▁트랙을	-15324
▁판소리	-15325
▁펜사도	-15326
▁폭행을	-15327
▁표현이	-15328
▁했나요	-15329
▁행사에	-15330
▁황비홍	-15331
사추세츠	-15332
시켰으며	-15333
시키려고	-15334
▁1793	-15335
▁1796	-15336
▁1866	-15337
▁1886	-15338
▁Born	-15339
▁from	-15340
▁가능성도	-15341
▁개인적인	-15342
▁거주하는	-15343
▁공개했다	-15344
▁관계없이	-15345
▁교회에서	-15346
▁김고은은	-15347
▁김일성이	-15348
▁나머지는	-15349
▁논란으로	-15350
▁독일군은	-15351
▁독일군이	-15352
▁라그나로	-15353
▁맡았는가	-15354
▁메릴랜드	-15355
▁멤버들의	-15356
▁미세먼지	-15357
▁바이마르	-15358
▁바티스타	-15359
▁배치되어	-15360
▁백성들의	-15361
▁불리기도	-15362
▁사라졌다	-15363
▁사회과학	-15364
▁송혜교가	-15365
▁수록되어	-15366
▁스타일을	-15367
▁스튜어트	-15368
▁시작되어	-15369
▁신문사는	-15370
▁싱글앨범	-15371
▁아라비아	-15372
▁않았는데	-15373
▁요청했다	-15374
▁위치하고	-15375
▁위협하는	-15376
▁유명하다	-15377
▁유지하는	-15378
▁이효리의	-15379
▁일원으로	-15380
▁있어서는	-15381
▁전성기를	-15382
▁정도이다	-15383
▁정도인가	-15384
▁주민들이	-15385
▁진행했다	-15386
▁청나라는	-15387
▁청나라에	-15388
▁토르메스	-15389
▁판매고를	-15390
▁패하였다	-15391
▁폭스바겐	-15392
▁플래티넘	-15393
▁해당한다	-15394
▁활동으로	-15395
▁나카모리가	-15396
▁남아프리카	-15397
▁람보르기니	-15398
▁레닌그라드	-15399
▁만들었는가	-15400
▁민주통합당	-15401
▁성공하였다	-15402
▁아인슈타인	-15403
▁아프리카계	-15404
▁안토니우스	-15405
▁캐나다에서	-15406
▁토이트베르	-15407
▁프랜시스는	-15408
▁피처링으로	-15409
▁School	-15410
▁백상예술대상	-15411
iversity	-15412
3,	-15413
78	-15414
??	-15415
ET	-15416
OT	-15417
RI	-15418
WC	-15419
de	-15420
~1	-15421
▁굿	-15422
▁끓	-15423
▁롬	-15424
▁솜	-15425
▁엥	-15426
▁웰	-15427
▁탔	-15428
▁톈	-15429
▁퐁	-15430
강도	-15431
건과	-15432
고와	-15433
공격	-15434
공연	-15435
군왕	-15436
궁을	-15437
년생	-15438
년제	-15439
더라	-15440
도덕	-15441
독재	-15442
됐나	-15443
두가	-15444
따라	-15445
때문	-15446
란히	-15447
레를	-15448
련을	-15449
리크	-15450
링은	-15451
말은	-15452
반응	-15453
변을	-15454
봉사	-15455
설과	-15456
설로	-15457
수인	-15458
십자	-15459
았기	-15460
야만	-15461
오게	-15462
오던	-15463
왕에	-15464
운영	-15465
이야	-15466
인터	-15467
있을	-15468
장기	-15469
정권	-15470
지법	-15471
초에	-15472
팀을	-15473
하우	-15474
함마	-15475
해운	-15476
호한	-15477
화점	-15478
히지	-15479
-11	-15480
app	-15481
enn	-15482
ren	-15483
sch	-15484
▁Mc	-15485
▁NA	-15486
▁가사	-15487
▁감수	-15488
▁감찰	-15489
▁갑오	-15490
▁개복	-15491
▁경무	-15492
▁경질	-15493
▁공이	-15494
▁구장	-15495
▁궁예	-15496
▁궁전	-15497
▁김원	-15498
▁남겼	-15499
▁내어	-15500
▁데는	-15501
▁도박	-15502
▁도읍	-15503
▁도피	-15504
▁듣는	-15505
▁뚫고	-15506
▁뜻이	-15507
▁라파	-15508
▁레즈	-15509
▁루키	-15510
▁리스	-15511
▁리암	-15512
▁리히	-15513
▁린다	-15514
▁릴리	-15515
▁마산	-15516
▁말기	-15517
▁맞대	-15518
▁매수	-15519
▁문예	-15520
▁미칠	-15521
▁반감	-15522
▁반사	-15523
▁번에	-15524
▁베버	-15525
▁부러	-15526
▁분이	-15527
▁비방	-15528
▁뽑힌	-15529
▁사촌	-15530
▁사탕	-15531
▁삭감	-15532
▁살게	-15533
▁삼는	-15534
▁상경	-15535
▁서포	-15536
▁석권	-15537
▁선원	-15538
▁섬은	-15539
▁섭정	-15540
▁성에	-15541
▁성질	-15542
▁세습	-15543
▁실격	-15544
▁쓰게	-15545
▁아오	-15546
▁안현	-15547
▁에밀	-15548
▁여럿	-15549
▁연쇄	-15550
▁열을	-15551
▁옮기	-15552
▁왕과	-15553
▁원전	-15554
▁이관	-15555
▁이뤘	-15556
▁이창	-15557
▁인력	-15558
▁일광	-15559
▁전한	-15560
▁점검	-15561
▁조반	-15562
▁조세	-15563
▁주권	-15564
▁죽는	-15565
▁죽자	-15566
▁중대	-15567
▁중종	-15568
▁즐거	-15569
▁증오	-15570
▁지는	-15571
▁처칠	-15572
▁천우	-15573
▁철폐	-15574
▁초등	-15575
▁추격	-15576
▁추수	-15577
▁충실	-15578
▁컸다	-15579
▁털어	-15580
▁토성	-15581
▁퇴장	-15582
▁트램	-15583
▁팀내	-15584
▁포츠	-15585
▁폭풍	-15586
▁피노	-15587
▁하천	-15588
▁한명	-15589
▁핸드	-15590
▁협동	-15591
▁호칭	-15592
▁후일	-15593
▁흥국	-15594
▁흥미	-15595
갔으며	-15596
계급의	-15597
내셔널	-15598
노미야	-15599
대회를	-15600
메이징	-15601
명에게	-15602
사들이	-15603
사실을	-15604
아버지	-15605
업으로	-15606
여명의	-15607
운드의	-15608
으려는	-15609
음체질	-15610
자이며	-15611
정당은	-15612
중이던	-15613
증으로	-15614
지역을	-15615
크리트	-15616
트리올	-15617
판으로	-15618
포인트	-15619
하나요	-15620
해진다	-15621
회의의	-15622
SIRE	-15623
iggy	-15624
ower	-15625
tern	-15626
▁166	-15627
▁3-0	-15628
▁350	-15629
▁BBK	-15630
▁NBA	-15631
▁Raw	-15632
▁가졌던	-15633
▁같았다	-15634
▁거두지	-15635
▁것이나	-15636
▁경쟁전	-15637
▁권위를	-15638
▁권한은	-15639
▁기반한	-15640
▁끝내기	-15641
▁끼치는	-15642
▁나타날	-15643
▁누르고	-15644
▁닥터가	-15645
▁단어가	-15646
▁달했다	-15647
▁대서양	-15648
▁대통합	-15649
▁맡았고	-15650
▁매거진	-15651
▁메달은	-15652
▁몇번째	-15653
▁모양이	-15654
▁무솔리	-15655
▁무죄를	-15656
▁문서의	-15657
▁민중의	-15658
▁밑에서	-15659
▁발언한	-15660
▁방영한	-15661
▁배우가	-15662
▁밴드를	-15663
▁벌이는	-15664
▁보이게	-15665
▁북쪽의	-15666
▁브이의	-15667
▁비용이	-15668
▁사냥을	-15669
▁사드가	-15670
▁사례가	-15671
▁사이드	-15672
▁생각은	-15673
▁서명한	-15674
▁서양의	-15675
▁선고받	-15676
▁시애틀	-15677
▁시위에	-15678
▁시장이	-15679
▁시절의	-15680
▁신문의	-15681
▁신정부	-15682
▁신화가	-15683
▁신화에	-15684
▁싱글인	-15685
▁쓰여진	-15686
▁아이젠	-15687
▁여대생	-15688
▁와일러	-15689
▁외무부	-15690
▁운영을	-15691
▁운행이	-15692
▁위안부	-15693
▁위치가	-15694
▁유지를	-15695
▁육영재	-15696
▁이라고	-15697
▁자세를	-15698
▁자연의	-15699
▁작용을	-15700
▁잡지의	-15701
▁전기를	-15702
▁정청래	-15703
▁조정은	-15704
▁존재는	-15705
▁주의를	-15706
▁지역구	-15707
▁진보적	-15708
▁진행될	-15709
▁집단이	-15710
▁징계를	-15711
▁채택한	-15712
▁체제는	-15713
▁최선을	-15714
▁출마한	-15715
▁탈분극	-15716
▁탈출을	-15717
▁탑재한	-15718
▁태어날	-15719
▁특이한	-15720
▁특징이	-15721
▁평범한	-15722
▁포격을	-15723
▁하였던	-15724
▁해달은	-15725
▁해주는	-15726
▁행위가	-15727
▁혐의가	-15728
▁확보한	-15729
▁확인된	-15730
▁환경을	-15731
▁훈장은	-15732
시키면서	-15733
이었다는	-15734
▁1899	-15735
▁Brit	-15736
▁Fame	-15737
▁Rain	-15738
▁강희제를	-15739
▁경상북도	-15740
▁고래자리	-15741
▁그로부터	-15742
▁근본적인	-15743
▁남아있다	-15744
▁남한산성	-15745
▁드러냈다	-15746
▁라틴어로	-15747
▁마지막에	-15748
▁마찬가지	-15749
▁며칠인가	-15750
▁모양으로	-15751
▁몬트리올	-15752
▁문화산업	-15753
▁문화재를	-15754
▁박보영은	-15755
▁받아들인	-15756
▁받아들일	-15757
▁받으면서	-15758
▁발생하고	-15759
▁발생하여	-15760
▁뱅크스는	-15761
▁분석했다	-15762
▁불리는가	-15763
▁비틀즈가	-15764
▁비판적인	-15765
▁사건에서	-15766
▁설명한다	-15767
▁성명서를	-15768
▁세인트루	-15769
▁소련군이	-15770
▁스위스의	-15771
▁스트리트	-15772
▁시리즈를	-15773
▁시스템은	-15774
▁십자군이	-15775
▁아무것도	-15776
▁안토니오	-15777
▁에나쓰가	-15778
▁에너지가	-15779
▁영역에서	-15780
▁오키나와	-15781
▁오픈에서	-15782
▁요구하며	-15783
▁우주전함	-15784
▁운행하는	-15785
▁움직임이	-15786
▁이명박이	-15787
▁이미지가	-15788
▁장면에서	-15789
▁전라남도	-15790
▁전반적인	-15791
▁정도였다	-15792
▁존재하고	-15793
▁참여하고	-15794
▁캐스팅된	-15795
▁테오도시	-15796
▁파크스는	-15797
▁프랑스를	-15798
▁해명했다	-15799
▁형성하고	-15800
▁획득했다	-15801
▁히어로즈	-15802
선수권대회	-15803
주의자들이	-15804
▁Human	-15805
▁기록하면서	-15806
▁러시아에서	-15807
▁마르가리타	-15808
▁베를린에서	-15809
▁아이디어를	-15810
▁태어났는가	-15811
▁프랑스군의	-15812
▁프로젝트를	-15813
▁아우스터리츠	-15814
▁자유민주연합	-15815
▁프리스틀리가	-15816
▁유럽찌르레기가	-15817
▁한국교원대학교	-15818
/4	-15819
94	-15820
Pr	-15821
be	-15822
ii	-15823
▁【	-15824
▁굶	-15825
▁깎	-15826
▁깜	-15827
▁늙	-15828
▁띤	-15829
▁렙	-15830
▁쏠	-15831
▁앰	-15832
▁엮	-15833
▁팻	-15834
가고	-15835
개와	-15836
과정	-15837
기병	-15838
남이	-15839
네어	-15840
담배	-15841
도전	-15842
들고	-15843
때로	-15844
란은	-15845
런을	-15846
록을	-15847
리도	-15848
리한	-15849
링턴	-15850
메네	-15851
모와	-15852
무늬	-15853
밀히	-15854
방법	-15855
배에	-15856
법률	-15857
보니	-15858
봉악	-15859
사용	-15860
아르	-15861
아와	-15862
애나	-15863
언론	-15864
에스	-15865
영국	-15866
옹정	-15867
유로	-15868
육군	-15869
으러	-15870
음력	-15871
의사	-15872
작인	-15873
재균	-15874
지드	-15875
지부	-15876
지않	-15877
짐을	-15878
집권	-15879
집에	-15880
체계	-15881
축구	-15882
츠는	-15883
코와	-15884
키로	-15885
킨슨	-15886
태는	-15887
통의	-15888
투리	-15889
트롤	-15890
티나	-15891
파도	-15892
팔렌	-15893
퍼스	-15894
품의	-15895
하로	-15896
해결	-15897
해와	-15898
훈의	-15899
-19	-15900
bag	-15901
iqu	-15902
▁8,	-15903
▁96	-15904
▁CM	-15905
▁On	-15906
▁PC	-15907
▁Pe	-15908
▁al	-15909
▁간첩	-15910
▁감축	-15911
▁강착	-15912
▁고쳐	-15913
▁공명	-15914
▁광장	-15915
▁교내	-15916
▁교역	-15917
▁구동	-15918
▁구약	-15919
▁급여	-15920
▁길고	-15921
▁김윤	-15922
▁김이	-15923
▁꿈을	-15924
▁낙동	-15925
▁날을	-15926
▁날카	-15927
▁남악	-15928
▁내외	-15929
▁내장	-15930
▁내정	-15931
▁다행	-15932
▁대를	-15933
▁던진	-15934
▁돈은	-15935
▁동정	-15936
▁두는	-15937
▁두어	-15938
▁라슨	-15939
▁로만	-15940
▁루드	-15941
▁루시	-15942
▁마드	-15943
▁마비	-15944
▁만의	-15945
▁말과	-15946
▁말콤	-15947
▁매개	-15948
▁모형	-15949
▁모후	-15950
▁목에	-15951
▁무서	-15952
▁무의	-15953
▁문벌	-15954
▁박규	-15955
▁박성	-15956
▁발음	-15957
▁배구	-15958
▁버드	-15959
▁보강	-15960
▁부는	-15961
▁북핵	-15962
▁불태	-15963
▁서북	-15964
▁선도	-15965
▁선사	-15966
▁선장	-15967
▁섭외	-15968
▁성씨	-15969
▁세균	-15970
▁세트	-15971
▁승용	-15972
▁시집	-15973
▁신봉	-15974
▁신비	-15975
▁아기	-15976
▁안겨	-15977
▁알린	-15978
▁애리	-15979
▁억울	-15980
▁여배	-15981
▁오렌	-15982
▁온갖	-15983
▁왜성	-15984
▁운송	-15985
▁윤치	-15986
▁이지	-15987
▁이케	-15988
▁이황	-15989
▁일요	-15990
▁일축	-15991
▁자아	-15992
▁전미	-15993
▁정작	-15994
▁조나	-15995
▁조코	-15996
▁주를	-15997
▁죽게	-15998
▁줄이	-15999
▁지점	-16000
▁진중	-16001
▁착취	-16002
▁창을	-16003
▁초상	-16004
▁최상	-16005
▁친박	-16006
▁콘셉	-16007
▁쿼드	-16008
▁큐브	-16009
▁태도	-16010
▁투척	-16011
▁특혜	-16012
▁파벌	-16013
▁평한	-16014
▁폴이	-16015
▁표방	-16016
▁표출	-16017
▁플랑	-16018
▁피질	-16019
▁학력	-16020
▁학위	-16021
▁한류	-16022
▁할로	-16023
▁함경	-16024
▁항구	-16025
▁해가	-16026
▁해역	-16027
▁현저	-16028
▁호가	-16029
▁화신	-16030
▁황후	-16031
▁회피	-16032
거리를	-16033
공사의	-16034
군단의	-16035
궁에서	-16036
년대와	-16037
달러의	-16038
대학이	-16039
라스틱	-16040
메이트	-16041
명에서	-16042
민주화	-16043
속에서	-16044
스코프	-16045
영화제	-16046
으로도	-16047
정책의	-16048
층으로	-16049
치아의	-16050
캅카스	-16051
폴란드	-16052
하려던	-16053
하우스	-16054
혐의로	-16055
화하고	-16056
회의는	-16057
▁175	-16058
▁3-1	-16059
▁3.5	-16060
▁360	-16061
▁Her	-16062
▁NAS	-16063
▁가담한	-16064
▁가수의	-16065
▁개인적	-16066
▁게스트	-16067
▁계획한	-16068
▁고소한	-16069
▁고안한	-16070
▁골자로	-16071
▁광고를	-16072
▁구성을	-16073
▁구조로	-16074
▁구조의	-16075
▁군대와	-16076
▁김기춘	-16077
▁내려진	-16078
▁내세워	-16079
▁내용에	-16080
▁넘치는	-16081
▁노무라	-16082
▁다장조	-16083
▁당하게	-16084
▁도시가	-16085
▁도시로	-16086
▁독일군	-16087
▁드레스	-16088
▁라스베	-16089
▁로넌은	-16090
▁마사히	-16091
▁만주국	-16092
▁망명한	-16093
▁모양은	-16094
▁묘호는	-16095
▁밖에도	-16096
▁발전한	-16097
▁배치를	-16098
▁버전은	-16099
▁베니테	-16100
▁부정부	-16101
▁부활절	-16102
▁북쪽에	-16103
▁분위기	-16104
▁불구속	-16105
▁불렸다	-16106
▁비중을	-16107
▁빠졌다	-16108
▁사드는	-16109
▁사랑에	-16110
▁사브르	-16111
▁산업의	-16112
▁살면서	-16113
▁새겨진	-16114
▁생각할	-16115
▁서울에	-16116
▁성소수	-16117
▁세상의	-16118
▁소나타	-16119
▁쇼케이	-16120
▁수감된	-16121
▁수용소	-16122
▁수준이	-16123
▁승리는	-16124
▁시공간	-16125
▁시냅스	-16126
▁시대가	-16127
▁시상식	-16128
▁시트콤	-16129
▁신화는	-16130
▁쓰이고	-16131
▁아내는	-16132
▁아이슬	-16133
▁아카이	-16134
▁알베르	-16135
▁언어로	-16136
▁여성에	-16137
▁연기로	-16138
▁용도로	-16139
▁우려를	-16140
▁우주선	-16141
▁위험이	-16142
▁유격수	-16143
▁유리는	-16144
▁의상을	-16145
▁의혹에	-16146
▁이이는	-16147
▁이해를	-16148
▁인정을	-16149
▁자살을	-16150
▁작위를	-16151
▁장기간	-16152
▁전력을	-16153
▁조건을	-16154
▁조정이	-16155
▁주위에	-16156
▁지방에	-16157
▁지위가	-16158
▁차례에	-16159
▁창당한	-16160
▁최연소	-16161
▁충돌을	-16162
▁취득한	-16163
▁카디널	-16164
▁탈퇴한	-16165
▁투수는	-16166
▁트빌리	-16167
▁특수전	-16168
▁판매를	-16169
▁학문적	-16170
▁학생의	-16171
▁함께한	-16172
▁항복한	-16173
▁했었다	-16174
▁혜택을	-16175
▁환자의	-16176
강전에서	-16177
고속도로	-16178
들에게도	-16179
라사리요	-16180
스케이팅	-16181
였습니까	-16182
음으로써	-16183
케이컴퍼	-16184
킴으로써	-16185
하기위해	-16186
▁1882	-16187
▁1903	-16188
▁Club	-16189
▁Song	-16190
▁갈릴레오	-16191
▁것이므로	-16192
▁경기장을	-16193
▁공화국을	-16194
▁과학기술	-16195
▁관리하는	-16196
▁국민의회	-16197
▁나타나고	-16198
▁노동조합	-16199
▁들어오는	-16200
▁미야자키	-16201
▁발견된다	-16202
▁변희재는	-16203
▁분위기가	-16204
▁브라우저	-16205
▁상관없이	-16206
▁스트레스	-16207
▁승리했다	-16208
▁시나리오	-16209
▁시청률을	-16210
▁신흥학교	-16211
▁십자군의	-16212
▁안산시의	-16213
▁알루미늄	-16214
▁야마토의	-16215
▁어려움이	-16216
▁에글린턴	-16217
▁에라스뮈	-16218
▁에스파냐	-16219
▁오하이오	-16220
▁유시민이	-16221
▁이곳에서	-16222
▁이순신이	-16223
▁인터스텔	-16224
▁일본군이	-16225
▁장악하고	-16226
▁재판부는	-16227
▁적용되는	-16228
▁전태일의	-16229
▁정통성을	-16230
▁조성민은	-16231
▁조성민이	-16232
▁주인공의	-16233
▁지시했다	-16234
▁지휘권을	-16235
▁진출했다	-16236
▁진행하는	-16237
▁차지했고	-16238
▁총장으로	-16239
▁출연했던	-16240
▁콘크리트	-16241
▁프로야구	-16242
▁플라토노	-16243
▁플로리다	-16244
▁한국친우	-16245
▁확인했다	-16246
▁효과적인	-16247
▁국가대표로	-16248
▁기록되었다	-16249
▁기록하였고	-16250
▁노동자들의	-16251
▁만들어진다	-16252
▁민주주의를	-16253
▁생각하였다	-16254
▁선언하였다	-16255
▁오펜하이머	-16256
▁조선총독부	-16257
▁추가되었다	-16258
▁취임하였다	-16259
▁카스트로가	-16260
▁프로이센의	-16261
▁발렌슈타인은	-16262
▁아이오케이컴퍼	-16263
72	-16264
9)	-16265
EP	-16266
FC	-16267
MI	-16268
PD	-16269
sk	-16270
▁꽤	-16271
▁떡	-16272
▁뤼	-16273
▁멍	-16274
▁뮐	-16275
▁솟	-16276
▁슛	-16277
▁캉	-16278
▁틴	-16279
감의	-16280
개인	-16281
거가	-16282
거는	-16283
계엄	-16284
고리	-16285
골에	-16286
궁의	-16287
나티	-16288
너가	-16289
녀는	-16290
노이	-16291
노총	-16292
다와	-16293
담당	-16294
당할	-16295
당해	-16296
등과	-16297
라지	-16298
령과	-16299
루크	-16300
른다	-16301
리바	-16302
리얼	-16303
링을	-16304
받기	-16305
방해	-16306
백을	-16307
보존	-16308
보지	-16309
비용	-16310
서니	-16311
서도	-16312
서인	-16313
선한	-16314
소추	-16315
스페	-16316
시고	-16317
시안	-16318
아마	-16319
암의	-16320
옥은	-16321
온은	-16322
왕조	-16323
월말	-16324
웠고	-16325
웨어	-16326
위대	-16327
위성	-16328
의원	-16329
이번	-16330
인해	-16331
자츠	-16332
작이	-16333
저스	-16334
중이	-16335
지진	-16336
천문	-16337
토벤	-16338
티스	-16339
편성	-16340
평한	-16341
푸스	-16342
피트	-16343
하루	-16344
허를	-16345
혐의	-16346
ade	-16347
hil	-16348
mon	-16349
ook	-16350
▁73	-16351
▁Aw	-16352
▁BO	-16353
▁Do	-16354
▁No	-16355
▁가쓰	-16356
▁가중	-16357
▁갈아	-16358
▁강수	-16359
▁겨냥	-16360
▁경연	-16361
▁골절	-16362
▁구한	-16363
▁국외	-16364
▁귀납	-16365
▁그랜	-16366
▁금성	-16367
▁금액	-16368
▁급히	-16369
▁기금	-16370
▁기어	-16371
▁기우	-16372
▁날에	-16373
▁내전	-16374
▁너머	-16375
▁넘은	-16376
▁놀이	-16377
▁뇌의	-16378
▁닉슨	-16379
▁다투	-16380
▁담아	-16381
▁대부	-16382
▁대왕	-16383
▁대종	-16384
▁덮여	-16385
▁델라	-16386
▁도구	-16387
▁두뇌	-16388
▁땅의	-16389
▁랭커	-16390
▁레온	-16391
▁로타	-16392
▁만료	-16393
▁만찬	-16394
▁맹활	-16395
▁맺어	-16396
▁명구	-16397
▁모의	-16398
▁미성	-16399
▁믿을	-16400
▁바코	-16401
▁박진	-16402
▁반지	-16403
▁부재	-16404
▁불필	-16405
▁브룩	-16406
▁비기	-16407
▁비싼	-16408
▁빛이	-16409
▁서적	-16410
▁섞여	-16411
▁선이	-16412
▁성당	-16413
▁성형	-16414
▁송영	-16415
▁송파	-16416
▁수료	-16417
▁아끼	-16418
▁안동	-16419
▁안팎	-16420
▁않자	-16421
▁애도	-16422
▁야노	-16423
▁양반	-16424
▁어쩔	-16425
▁연소	-16426
▁열려	-16427
▁염려	-16428
▁영유	-16429
▁예고	-16430
▁오타	-16431
▁요약	-16432
▁용의	-16433
▁우호	-16434
▁워크	-16435
▁워터	-16436
▁월터	-16437
▁위그	-16438
▁위헌	-16439
▁유닛	-16440
▁유화	-16441
▁유희	-16442
▁이렇	-16443
▁읽고	-16444
▁임상	-16445
▁입국	-16446
▁자문	-16447
▁잡는	-16448
▁장타	-16449
▁전래	-16450
▁제왕	-16451
▁중소	-16452
▁지을	-16453
▁질소	-16454
▁징수	-16455
▁쪽에	-16456
▁차관	-16457
▁채굴	-16458
▁채워	-16459
▁체스	-16460
▁최신	-16461
▁치렀	-16462
▁치뤄	-16463
▁치세	-16464
▁친정	-16465
▁케라	-16466
▁탓에	-16467
▁테니	-16468
▁테리	-16469
▁투신	-16470
▁팔레	-16471
▁편도	-16472
▁품은	-16473
▁풍속	-16474
▁플립	-16475
▁피지	-16476
▁필드	-16477
▁해지	-16478
▁흐루	-16479
공격을	-16480
교도의	-16481
국가의	-16482
나가와	-16483
다니며	-16484
로스의	-16485
리스는	-16486
리스의	-16487
사건이	-16488
스키는	-16489
스트의	-16490
시오도	-16491
야말로	-16492
억원의	-16493
조직의	-16494
주의로	-16495
지라도	-16496
지역에	-16497
체제를	-16498
컵에서	-16499
키스탄	-16500
트릭스	-16501
학적인	-16502
....	-16503
eter	-16504
inal	-16505
over	-16506
▁125	-16507
▁DID	-16508
▁EBS	-16509
▁ISO	-16510
▁가리켜	-16511
▁간사이	-16512
▁감독한	-16513
▁게릭의	-16514
▁계약에	-16515
▁공손찬	-16516
▁광종은	-16517
▁교회가	-16518
▁구호를	-16519
▁국내에	-16520
▁그만두	-16521
▁근거를	-16522
▁급격한	-16523
▁급진적	-16524
▁기초를	-16525
▁남성의	-16526
▁네바다	-16527
▁노력이	-16528
▁단체가	-16529
▁단체를	-16530
▁답변을	-16531
▁댓글을	-16532
▁더욱이	-16533
▁도왔다	-16534
▁도입을	-16535
▁독일인	-16536
▁때때로	-16537
▁뛰어나	-16538
▁로맨스	-16539
▁로맨틱	-16540
▁롤리타	-16541
▁리더십	-16542
▁마련한	-16543
▁마리가	-16544
▁마법의	-16545
▁말하면	-16546
▁맞추어	-16547
▁명령에	-16548
▁모델을	-16549
▁모델이	-16550
▁모두를	-16551
▁무기징	-16552
▁무리한	-16553
▁무함마	-16554
▁미치지	-16555
▁반란이	-16556
▁방문을	-16557
▁방식이	-16558
▁버벌진	-16559
▁벗어난	-16560
▁베르사	-16561
▁베토벤	-16562
▁보리고	-16563
▁보이기	-16564
▁불규칙	-16565
▁붙이는	-16566
▁빌리의	-16567
▁사례를	-16568
▁사무총	-16569
▁사퇴한	-16570
▁살았다	-16571
▁새겨져	-16572
▁새벽에	-16573
▁서로의	-16574
▁성립된	-16575
▁성적이	-16576
▁소녀의	-16577
▁소크라	-16578
▁수단의	-16579
▁수입을	-16580
▁스파르	-16581
▁신인상	-16582
▁쌍둥이	-16583
▁쓰러진	-16584
▁아나키	-16585
▁아크레	-16586
▁알리고	-16587
▁알앤비	-16588
▁암컷은	-16589
▁앙드레	-16590
▁얼굴들	-16591
▁없도록	-16592
▁없음을	-16593
▁여론을	-16594
▁역임한	-16595
▁연달아	-16596
▁연예계	-16597
▁연평균	-16598
▁영어를	-16599
▁운행을	-16600
▁유력한	-16601
▁유지할	-16602
▁이순신	-16603
▁이유에	-16604
▁이이가	-16605
▁장거리	-16606
▁장관의	-16607
▁재정적	-16608
▁적으로	-16609
▁전국의	-16610
▁전당에	-16611
▁정책과	-16612
▁정하는	-16613
▁주기로	-16614
▁주최한	-16615
▁죽이는	-16616
▁준비가	-16617
▁중앙의	-16618
▁증거는	-16619
▁증상을	-16620
▁지키고	-16621
▁채널이	-16622
▁칭하는	-16623
▁타임의	-16624
▁태양을	-16625
▁태조는	-16626
▁통제를	-16627
▁투어는	-16628
▁판단한	-16629
▁펜들턴	-16630
▁폐결핵	-16631
▁표면은	-16632
▁피타고	-16633
▁하임이	-16634
▁항소를	-16635
▁헤르만	-16636
▁호칭은	-16637
▁확실한	-16638
▁황재균	-16639
▁흩어져	-16640
레타리아	-16641
오버워치	-16642
통감강목	-16643
하였다가	-16644
enage	-16645
irbag	-16646
▁1840	-16647
▁1887	-16648
▁8601	-16649
▁각지에서	-16650
▁개체수는	-16651
▁것이라며	-16652
▁고려시대	-16653
▁고조선의	-16654
▁그룹으로	-16655
▁담당했다	-16656
▁대신하여	-16657
▁대중에게	-16658
▁만들었고	-16659
▁명령했다	-16660
▁몇개인가	-16661
▁미쓰히데	-16662
▁민주당의	-16663
▁발생한다	-16664
▁변호사는	-16665
▁불렸는가	-16666
▁뿐이었다	-16667
▁삼성전자	-16668
▁상하이에	-16669
▁슈퍼스타	-16670
▁스테이지	-16671
▁스포일러	-16672
▁시대에는	-16673
▁시절에는	-16674
▁아인자츠	-16675
▁여자친구	-16676
▁연기대상	-16677
▁올랐으며	-16678
▁의화단의	-16679
▁이용해서	-16680
▁이효리는	-16681
▁이후로는	-16682
▁일어나기	-16683
▁재계약을	-16684
▁점령하고	-16685
▁조정에서	-16686
▁중앙일보	-16687
▁청와대가	-16688
▁추수감사	-16689
▁평가하는	-16690
▁피츠버그	-16691
▁피해자의	-16692
▁하이브리	-16693
▁한효주는	-16694
▁할아버지	-16695
▁활용하여	-16696
▁황교안이	-16697
여자대학교	-16698
▁다이아몬드	-16699
▁당선되었다	-16700
▁만들어냈다	-16701
▁발매하였고	-16702
▁사회주의적	-16703
▁상황이었다	-16704
▁알렉산드르	-16705
▁언급하였다	-16706
▁에피소드에	-16707
▁영화제에서	-16708
▁있었음에도	-16709
▁정부로부터	-16710
▁크리스토프	-16711
▁한국에서는	-16712
▁목탁수구리의	-16713
▁베이비복스는	-16714
▁사회민주주의	-16715
▁스카이라인은	-16716
▁안토니우스가	-16717
▁테오도시우스	-16718
▁프리스케이팅	-16719
5,	-16720
73	-16721
93	-16722
CA	-16723
CD	-16724
PA	-16725
Sp	-16726
ym	-16727
▁냄	-16728
▁몫	-16729
▁뷰	-16730
▁얽	-16731
▁짙	-16732
▁풋	-16733
▁헛	-16734
개미	-16735
것에	-16736
격의	-16737
결한	-16738
경험	-16739
고문	-16740
공의	-16741
궁에	-16742
권도	-16743
그림	-16744
너는	-16745
네시	-16746
년여	-16747
노바	-16748
다를	-16749
락의	-16750
랭크	-16751
마에	-16752
모임	-16753
바나	-16754
반에	-16755
번지	-16756
번호	-16757
법상	-16758
복이	-16759
분석	-16760
산과	-16761
상한	-16762
새를	-16763
선진	-16764
수염	-16765
실점	-16766
연금	-16767
연방	-16768
오린	-16769
와도	-16770
월호	-16771
인구	-16772
임시	-16773
자흐	-16774
작의	-16775
전도	-16776
점기	-16777
조리	-16778
지난	-16779
지상	-16780
진한	-16781
질량	-16782
츠와	-16783
쿠호	-16784
탄에	-16785
트넘	-16786
트르	-16787
플릿	-16788
하리	-16789
학부	-16790
혹은	-16791
효과	-16792
(10	-16793
bit	-16794
iet	-16795
own	-16796
ric	-16797
~18	-16798
▁0.	-16799
▁DC	-16800
▁Sk	-16801
▁감상	-16802
▁감압	-16803
▁강성	-16804
▁개찰	-16805
▁개항	-16806
▁거머	-16807
▁거북	-16808
▁공론	-16809
▁관직	-16810
▁국한	-16811
▁궤멸	-16812
▁그게	-16813
▁극히	-16814
▁기성	-16815
▁기지	-16816
▁기체	-16817
▁까치	-16818
▁나도	-16819
▁낡은	-16820
▁남해	-16821
▁넷째	-16822
▁누리	-16823
▁니케	-16824
▁니코	-16825
▁달에	-16826
▁달은	-16827
▁동교	-16828
▁동문	-16829
▁동성	-16830
▁드림	-16831
▁듣기	-16832
▁레몬	-16833
▁마루	-16834
▁만날	-16835
▁매력	-16836
▁맹세	-16837
▁명목	-16838
▁몸싸	-16839
▁무스	-16840
▁무언	-16841
▁묶어	-16842
▁받던	-16843
▁발병	-16844
▁방안	-16845
▁배척	-16846
▁백선	-16847
▁법이	-16848
▁병의	-16849
▁보정	-16850
▁본거	-16851
▁불거	-16852
▁불행	-16853
▁불확	-16854
▁비치	-16855
▁사교	-16856
▁살라	-16857
▁삼군	-16858
▁샘플	-16859
▁생계	-16860
▁생략	-16861
▁서원	-16862
▁선행	-16863
▁설리	-16864
▁성은	-16865
▁세상	-16866
▁세자	-16867
▁섹스	-16868
▁소다	-16869
▁소외	-16870
▁소음	-16871
▁송금	-16872
▁쇼와	-16873
▁순조	-16874
▁순회	-16875
▁숫자	-16876
▁슬럼	-16877
▁시켜	-16878
▁신동	-16879
▁신채	-16880
▁쌓인	-16881
▁쓰촨	-16882
▁아랫	-16883
▁아부	-16884
▁안치	-16885
▁안희	-16886
▁알라	-16887
▁알코	-16888
▁앵커	-16889
▁어찌	-16890
▁어휘	-16891
▁예금	-16892
▁오라	-16893
▁오케	-16894
▁왕당	-16895
▁왕자	-16896
▁외래	-16897
▁원에	-16898
▁위배	-16899
▁윌슨	-16900
▁유혈	-16901
▁유형	-16902
▁음핵	-16903
▁이노	-16904
▁인접	-16905
▁입자	-16906
▁자고	-16907
▁전권	-16908
▁정면	-16909
▁제창	-16910
▁조류	-16911
▁조심	-16912
▁주와	-16913
▁중동	-16914
▁지분	-16915
▁청룡	-16916
▁캐나	-16917
▁클릭	-16918
▁타점	-16919
▁타협	-16920
▁탄도	-16921
▁토륨	-16922
▁토양	-16923
▁파넨	-16924
▁파커	-16925
▁패닌	-16926
▁패퇴	-16927
▁패해	-16928
▁포켓	-16929
▁피쳐	-16930
▁하부	-16931
▁한해	-16932
▁항변	-16933
▁행한	-16934
▁헌신	-16935
▁호기	-16936
▁후렴	-16937
▁후배	-16938
▁흉내	-16939
가능한	-16940
결과를	-16941
공산당	-16942
내면서	-16943
노동자	-16944
는지에	-16945
레스를	-16946
마리의	-16947
비서관	-16948
수에게	-16949
스타의	-16950
악티늄	-16951
에너지	-16952
이스케	-16953
인에서	-16954
일라잇	-16955
일에서	-16956
자료를	-16957
장치를	-16958
절에서	-16959
정책에	-16960
지금의	-16961
지었다	-16962
청에서	-16963
토피아	-16964
피안타	-16965
2000	-16966
cept	-16967
lass	-16968
rand	-16969
▁1-1	-16970
▁CBS	-16971
▁NBC	-16972
▁von	-16973
▁가능성	-16974
▁가르친	-16975
▁가볍게	-16976
▁가상의	-16977
▁강화를	-16978
▁개발된	-16979
▁개시한	-16980
▁개체군	-16981
▁거절한	-16982
▁것에서	-16983
▁경제는	-16984
▁계속된	-16985
▁계승한	-16986
▁광화문	-16987
▁교량의	-16988
▁교회는	-16989
▁구멍을	-16990
▁구입한	-16991
▁국립공	-16992
▁규칙을	-16993
▁그렇기	-16994
▁그려져	-16995
▁기업이	-16996
▁기초한	-16997
▁김기덕	-16998
▁김씨는	-16999
▁김종필	-17000
▁나누는	-17001
▁나라로	-17002
▁나이지	-17003
▁남부의	-17004
▁노히트	-17005
▁높였다	-17006
▁늘어난	-17007
▁다리가	-17008
▁대사는	-17009
▁더이상	-17010
▁동등한	-17011
▁되풀이	-17012
▁두꺼운	-17013
▁드디어	-17014
▁뜻이다	-17015
▁마음의	-17016
▁만화가	-17017
▁머리에	-17018
▁몇명이	-17019
▁모로는	-17020
▁모리슨	-17021
▁문화가	-17022
▁물품을	-17023
▁뮤지션	-17024
▁박사는	-17025
▁반격을	-17026
▁발언이	-17027
▁방침을	-17028
▁배경은	-17029
▁버전을	-17030
▁벤허는	-17031
▁보고한	-17032
▁보편적	-17033
▁북한을	-17034
▁불가피	-17035
▁사보이	-17036
▁사업의	-17037
▁사카이	-17038
▁삼번의	-17039
▁새끼는	-17040
▁성균관	-17041
▁수사에	-17042
▁순치제	-17043
▁시각은	-17044
▁시에는	-17045
▁시티가	-17046
▁시호는	-17047
▁신앙을	-17048
▁신한국	-17049
▁심시티	-17050
▁쓰레기	-17051
▁쓰인다	-17052
▁아내가	-17053
▁아비뇽	-17054
▁아사히	-17055
▁아시모	-17056
▁알렉스	-17057
▁어렵게	-17058
▁언론을	-17059
▁얼마로	-17060
▁얼음이	-17061
▁엘리스	-17062
▁여자가	-17063
▁역할에	-17064
▁영어와	-17065
▁영원한	-17066
▁예정된	-17067
▁오가는	-17068
▁왕국을	-17069
▁왕실의	-17070
▁우리를	-17071
▁위원장	-17072
▁유죄를	-17073
▁이것에	-17074
▁이동할	-17075
▁이재명	-17076
▁인간은	-17077
▁인식을	-17078
▁일리노	-17079
▁일하는	-17080
▁잃었다	-17081
▁임무는	-17082
▁자리는	-17083
▁자체는	-17084
▁자체의	-17085
▁작업은	-17086
▁장애인	-17087
▁적용한	-17088
▁전선에	-17089
▁제작이	-17090
▁주먹이	-17091
▁지중해	-17092
▁지키지	-17093
▁진단을	-17094
▁참여를	-17095
▁채스테	-17096
▁처벌을	-17097
▁천황이	-17098
▁철수한	-17099
▁철학을	-17100
▁체제가	-17101
▁초부터	-17102
▁추기경	-17103
▁출판사	-17104
▁치열한	-17105
▁클럽은	-17106
▁타디스	-17107
▁태평천	-17108
▁터커가	-17109
▁토스카	-17110
▁특별법	-17111
▁특수한	-17112
▁특전사	-17113
▁팀추월	-17114
▁판매한	-17115
▁포기한	-17116
▁플라이	-17117
▁학문을	-17118
▁함대가	-17119
▁합의한	-17120
▁항성은	-17121
▁해달을	-17122
▁해체된	-17123
▁화려한	-17124
▁활동과	-17125
▁활용한	-17126
▁황제인	-17127
▁휴대전	-17128
▁흐름이	-17129
▁힘으로	-17130
겠습니다	-17131
년대에는	-17132
라이어티	-17133
마디부터	-17134
뮤직뱅크	-17135
연구소의	-17136
캠퍼스의	-17137
해달라고	-17138
ittle	-17139
▁1776	-17140
▁1884	-17141
▁1890	-17142
▁4.19	-17143
▁NASA	-17144
▁가경제는	-17145
▁가능한가	-17146
▁개신교도	-17147
▁결혼했다	-17148
▁공격했다	-17149
▁공동대표	-17150
▁구분된다	-17151
▁국민들이	-17152
▁근로기준	-17153
▁급속도로	-17154
▁김유정이	-17155
▁나카무라	-17156
▁나타냈다	-17157
▁다양하게	-17158
▁다운로드	-17159
▁단독으로	-17160
▁대대적인	-17161
▁대응하기	-17162
▁둘러싸고	-17163
▁등번호는	-17164
▁루즈벨트	-17165
▁류준열이	-17166
▁마이애미	-17167
▁못했다는	-17168
▁민주당과	-17169
▁박태환이	-17170
▁발견하고	-17171
▁발렌시아	-17172
▁발매했고	-17173
▁법적으로	-17174
▁보았는가	-17175
▁브랜드는	-17176
▁사령관은	-17177
▁스타일의	-17178
▁시리즈에	-17179
▁신기록을	-17180
▁실시했다	-17181
▁심각하게	-17182
▁아랍에미	-17183
▁아이들은	-17184
▁알려지게	-17185
▁야마구치	-17186
▁양유찬은	-17187
▁언론사는	-17188
▁에르제가	-17189
▁영국으로	-17190
▁올랐는가	-17191
▁완벽하게	-17192
▁이데올로	-17193
▁이동하는	-17194
▁인정했다	-17195
▁일본과의	-17196
▁자연과학	-17197
▁제공한다	-17198
▁조약으로	-17199
▁주둔하고	-17200
▁참가했다	-17201
▁청나라가	-17202
▁최진실과	-17203
▁추천으로	-17204
▁캄브리아	-17205
▁클레오파	-17206
▁탄핵소추	-17207
▁트럼프가	-17208
▁파리에서	-17209
▁판단했다	-17210
▁포함된다	-17211
▁프랑스로	-17212
▁프로모션	-17213
▁한국방송	-17214
▁한미연합	-17215
▁헨리에타	-17216
▁활동하며	-17217
▁활발하게	-17218
전문대학원	-17219
▁감독이었던	-17220
▁귀신고래의	-17221
▁원칙적으로	-17222
▁진출하였다	-17223
▁크로아티아	-17224
▁토론회에서	-17225
▁트레이드는	-17226
▁프로그램이	-17227
▁라부아지에의	-17228
▁뮤직비디오가	-17229
▁세인트루이스	-17230
▁쇼트프로그램	-17231
▁주장하였는가	-17232
▁준결승전에서	-17233
▁Britney	-17234
▁스테고사우루스	-17235
▁알로사우루스가	-17236
▁국제빙상경기연맹	-17237
74	-17238
83	-17239
NG	-17240
ft	-17241
pr	-17242
▁°	-17243
▁눌	-17244
▁뢰	-17245
▁므	-17246
▁섰	-17247
▁싹	-17248
▁엿	-17249
▁왓	-17250
▁웸	-17251
▁챌	-17252
▁칩	-17253
가시	-17254
가인	-17255
감각	-17256
강남	-17257
거의	-17258
공단	-17259
공무	-17260
관인	-17261
군인	-17262
근을	-17263
끼를	-17264
나토	-17265
내지	-17266
네마	-17267
느라	-17268
니시	-17269
달은	-17270
덩이	-17271
드슨	-17272
랭킹	-17273
레토	-17274
롭고	-17275
르도	-17276
무관	-17277
무기	-17278
무한	-17279
반대	-17280
방지	-17281
보전	-17282
복합	-17283
산은	-17284
상어	-17285
석방	-17286
성경	-17287
셔스	-17288
소송	-17289
악을	-17290
어업	-17291
업의	-17292
엘리	-17293
역한	-17294
열과	-17295
운이	-17296
유치	-17297
장로	-17298
장일	-17299
전서	-17300
전인	-17301
종과	-17302
창원	-17303
처로	-17304
체적	-17305
츠를	-17306
층과	-17307
치노	-17308
쾰른	-17309
키오	-17310
포는	-17311
포드	-17312
훈을	-17313
)",	-17314
)》,	-17315
700	-17316
ave	-17317
ini	-17318
ors	-17319
ree	-17320
rid	-17321
the	-17322
▁79	-17323
▁86	-17324
▁DE	-17325
▁Op	-17326
▁가도	-17327
▁가면	-17328
▁가자	-17329
▁각성	-17330
▁강호	-17331
▁객원	-17332
▁걸고	-17333
▁겹쳐	-17334
▁고트	-17335
▁관제	-17336
▁광견	-17337
▁교정	-17338
▁그럴	-17339
▁근원	-17340
▁글은	-17341
▁금이	-17342
▁난은	-17343
▁남로	-17344
▁내기	-17345
▁내주	-17346
▁냉전	-17347
▁넘긴	-17348
▁넘지	-17349
▁노리	-17350
▁노조	-17351
▁누나	-17352
▁다우	-17353
▁다크	-17354
▁독창	-17355
▁돋보	-17356
▁돼지	-17357
▁든다	-17358
▁들지	-17359
▁따를	-17360
▁딸이	-17361
▁띄는	-17362
▁라면	-17363
▁로보	-17364
▁로펌	-17365
▁리가	-17366
▁리치	-17367
▁만세	-17368
▁매체	-17369
▁메건	-17370
▁명인	-17371
▁몰두	-17372
▁몸의	-17373
▁무인	-17374
▁미주	-17375
▁미키	-17376
▁민속	-17377
▁바덴	-17378
▁박해	-17379
▁반전	-17380
▁방탄	-17381
▁법안	-17382
▁베른	-17383
▁벼슬	-17384
▁본부	-17385
▁볼넷	-17386
▁분향	-17387
▁불꽃	-17388
▁붕당	-17389
▁블룸	-17390
▁빗대	-17391
▁사샤	-17392
▁살기	-17393
▁상해	-17394
▁새해	-17395
▁선종	-17396
▁성화	-17397
▁세션	-17398
▁세탄	-17399
▁섹시	-17400
▁소금	-17401
▁수령	-17402
▁수신	-17403
▁수장	-17404
▁스팀	-17405
▁시발	-17406
▁시신	-17407
▁시켰	-17408
▁신드	-17409
▁신해	-17410
▁싱어	-17411
▁애머	-17412
▁얇은	-17413
▁양대	-17414
▁억류	-17415
▁업체	-17416
▁엇갈	-17417
▁역과	-17418
▁연인	-17419
▁열리	-17420
▁영미	-17421
▁옐로	-17422
▁옥스	-17423
▁요크	-17424
▁요하	-17425
▁용이	-17426
▁원조	-17427
▁위탁	-17428
▁은둔	-17429
▁음성	-17430
▁의욕	-17431
▁이낙	-17432
▁이븐	-17433
▁이원	-17434
▁일렉	-17435
▁일한	-17436
▁읽는	-17437
▁입사	-17438
▁자민	-17439
▁자책	-17440
▁잡을	-17441
▁정육	-17442
▁제대	-17443
▁제명	-17444
▁제트	-17445
▁조부	-17446
▁종묘	-17447
▁줄리	-17448
▁진흥	-17449
▁질주	-17450
▁짐승	-17451
▁천재	-17452
▁철강	-17453
▁초월	-17454
▁초의	-17455
▁치고	-17456
▁칭한	-17457
▁카바	-17458
▁캐피	-17459
▁코트	-17460
▁타도	-17461
▁태조	-17462
▁토룹	-17463
▁토리	-17464
▁퇴선	-17465
▁팀과	-17466
▁파면	-17467
▁페루	-17468
▁편이	-17469
▁평행	-17470
▁포섭	-17471
▁피력	-17472
▁하르	-17473
▁하의	-17474
▁한가	-17475
▁함선	-17476
▁허블	-17477
▁헤지	-17478
▁호위	-17479
▁화를	-17480
겠는가	-17481
공사가	-17482
끄러운	-17483
는지는	-17484
단체는	-17485
대학을	-17486
동적인	-17487
됐다고	-17488
라리디	-17489
러스트	-17490
레이트	-17491
로리타	-17492
범으로	-17493
베니아	-17494
부대가	-17495
부대를	-17496
수소영	-17497
시까지	-17498
안타를	-17499
어진다	-17500
에게만	-17501
왕후의	-17502
일자로	-17503
작전을	-17504
정책은	-17505
테스트	-17506
튜니티	-17507
편에서	-17508
평가를	-17509
ngel	-17510
orse	-17511
▁All	-17512
▁Are	-17513
▁가속화	-17514
▁개인이	-17515
▁객관적	-17516
▁거리의	-17517
▁것들을	-17518
▁결정은	-17519
▁결합을	-17520
▁고대의	-17521
▁고종은	-17522
▁공격해	-17523
▁공연에	-17524
▁국민당	-17525
▁규정에	-17526
▁그쳤다	-17527
▁기금을	-17528
▁기부한	-17529
▁기자가	-17530
▁기자의	-17531
▁김정일	-17532
▁나고야	-17533
▁나뉜다	-17534
▁나란히	-17535
▁남부에	-17536
▁남성이	-17537
▁내리고	-17538
▁노력은	-17539
▁노선이	-17540
▁논의가	-17541
▁닛폰햄	-17542
▁단계는	-17543
▁단계에	-17544
▁당명을	-17545
▁당하는	-17546
▁대우를	-17547
▁대폭발	-17548
▁더하여	-17549
▁도쿄의	-17550
▁동물원	-17551
▁동물의	-17552
▁두려움	-17553
▁떠나는	-17554
▁뛰었다	-17555
▁마돈나	-17556
▁마드라	-17557
▁말제르	-17558
▁면담을	-17559
▁몬테카	-17560
▁문자의	-17561
▁문화는	-17562
▁반환을	-17563
▁발간된	-17564
▁방대한	-17565
▁방송의	-17566
▁밸러리	-17567
▁번이나	-17568
▁별칭은	-17569
▁보이콧	-17570
▁부모의	-17571
▁부유한	-17572
▁분쟁이	-17573
▁비롯된	-17574
▁비주얼	-17575
▁빠지게	-17576
▁사단은	-17577
▁사랑의	-17578
▁사상에	-17579
▁사상이	-17580
▁사업이	-17581
▁새마을	-17582
▁선수단	-17583
▁선언은	-17584
▁선택을	-17585
▁셰퍼드	-17586
▁소녀를	-17587
▁수용할	-17588
▁승리가	-17589
▁시호를	-17590
▁아도르	-17591
▁아이즈	-17592
▁않아도	-17593
▁앤서니	-17594
▁양키스	-17595
▁에리히	-17596
▁여부에	-17597
▁역사에	-17598
▁역사학	-17599
▁열차의	-17600
▁영남대	-17601
▁영향은	-17602
▁예술의	-17603
▁오르며	-17604
▁외교적	-17605
▁요제프	-17606
▁유전적	-17607
▁은퇴한	-17608
▁의사표	-17609
▁의원과	-17610
▁이같은	-17611
▁이곳에	-17612
▁이내에	-17613
▁이에야	-17614
▁인질로	-17615
▁임기는	-17616
▁임의로	-17617
▁자격이	-17618
▁장비를	-17619
▁장치는	-17620
▁재정비	-17621
▁저서의	-17622
▁전투기	-17623
▁절정에	-17624
▁접어들	-17625
▁정당한	-17626
▁정책이	-17627
▁정치권	-17628
▁제시카	-17629
▁제한을	-17630
▁조사가	-17631
▁조약에	-17632
▁조지프	-17633
▁조직에	-17634
▁종교를	-17635
▁주었고	-17636
▁주제에	-17637
▁증거를	-17638
▁증언에	-17639
▁지원이	-17640
▁지지율	-17641
▁지켜보	-17642
▁진학한	-17643
▁진화를	-17644
▁철도의	-17645
▁체제의	-17646
▁초이스	-17647
▁촬영이	-17648
▁축제를	-17649
▁출마를	-17650
▁출신은	-17651
▁침략을	-17652
▁쿠바의	-17653
▁크기를	-17654
▁클라우	-17655
▁클래스	-17656
▁타율이	-17657
▁탁월한	-17658
▁태그팀	-17659
▁탤런트	-17660
▁통합을	-17661
▁퇴진을	-17662
▁투어의	-17663
▁패밀리	-17664
▁패배로	-17665
▁팬들은	-17666
▁퍼시픽	-17667
▁평화와	-17668
▁평화의	-17669
▁포메라	-17670
▁프라길	-17671
▁한다면	-17672
▁항생제	-17673
▁해에는	-17674
▁행성을	-17675
▁헌법이	-17676
▁현장을	-17677
▁후백제	-17678
▁후보와	-17679
▁히네노	-17680
네덜란드	-17681
년대까지	-17682
대학교를	-17683
대한민국	-17684
만으로도	-17685
적이라는	-17686
하기까지	-17687
학자들의	-17688
▁1200	-17689
▁1420	-17690
▁1870	-17691
▁Amer	-17692
▁Mnet	-17693
▁가능성은	-17694
▁가르치는	-17695
▁가마쿠라	-17696
▁강조하며	-17697
▁결승골을	-17698
▁경우에도	-17699
▁경제적인	-17700
▁계속되는	-17701
▁고려하여	-17702
▁공장에서	-17703
▁관련되어	-17704
▁국가보안	-17705
▁국내에서	-17706
▁그러다가	-17707
▁김보름의	-17708
▁낭만주의	-17709
▁당하였다	-17710
▁대규모의	-17711
▁대중교통	-17712
▁대중음악	-17713
▁더글러스	-17714
▁독일군의	-17715
▁맡았으며	-17716
▁명분으로	-17717
▁무한도전	-17718
▁미사일은	-17719
▁미쓰비시	-17720
▁민족문제	-17721
▁반기독교	-17722
▁버전으로	-17723
▁불법으로	-17724
▁비상계엄	-17725
▁비욘세는	-17726
▁비즈니스	-17727
▁사람들도	-17728
▁사실이다	-17729
▁사용자가	-17730
▁사이트는	-17731
▁삼엽충은	-17732
▁생각했던	-17733
▁생산하는	-17734
▁서인영은	-17735
▁선수에게	-17736
▁설명하기	-17737
▁설치하여	-17738
▁손예진이	-17739
▁시스템의	-17740
▁시작하고	-17741
▁아이비의	-17742
▁안전하게	-17743
▁어머니를	-17744
▁언더우드	-17745
▁없었지만	-17746
▁연합군이	-17747
▁올림픽과	-17748
▁와카야마	-17749
▁월드컵의	-17750
▁유라시아	-17751
▁이미지로	-17752
▁이야기의	-17753
▁이종욱이	-17754
▁일리노이	-17755
▁일이었다	-17756
▁적용되어	-17757
▁전라북도	-17758
▁제한하는	-17759
▁존재하며	-17760
▁좌우합작	-17761
▁주변에서	-17762
▁지휘관은	-17763
▁차지한다	-17764
▁참여하게	-17765
▁참여하지	-17766
▁측에서는	-17767
▁카지미에	-17768
▁타블로가	-17769
▁패트리어	-17770
▁폐지하고	-17771
▁피해자가	-17772
▁한미전기	-17773
▁할리우드	-17774
▁행정구역	-17775
▁혁명으로	-17776
▁확실하게	-17777
▁활약으로	-17778
▁히데요시	-17779
▁4,000	-17780
▁Colle	-17781
▁경기장에서	-17782
▁광범위하게	-17783
▁마오쩌둥이	-17784
▁만들었다고	-17785
▁몇년도인가	-17786
▁민중총궐기	-17787
▁불가능하다	-17788
▁사용하는가	-17789
▁샘프러스가	-17790
▁솔라나스의	-17791
▁아덴하트의	-17792
▁아이슬란드	-17793
▁오퍼튜니티	-17794
▁우리나라의	-17795
▁전리수소영	-17796
▁전문가들은	-17797
▁정기적으로	-17798
▁정상회담을	-17799
▁지카바이러	-17800
▁크리스티안	-17801
▁타블라리디	-17802
▁퍼포먼스를	-17803
▁히어로즈의	-17804
엠카운트다운	-17805
▁문재인대통령	-17806
▁새천년민주당	-17807
▁스카이라인을	-17808
▁프롤레타리아	-17809
▁피겨스케이팅	-17810
오스트레일리아	-17811
(6	-17812
Ar	-17813
De	-17814
FM	-17815
GN	-17816
PL	-17817
▁前	-17818
▁꼼	-17819
▁났	-17820
▁댈	-17821
▁맴	-17822
▁빵	-17823
가능	-17824
강원	-17825
경쟁	-17826
곡에	-17827
교류	-17828
그린	-17829
길에	-17830
늦게	-17831
님은	-17832
닷컴	-17833
대응	-17834
두엽	-17835
드래	-17836
등에	-17837
뜨려	-17838
르네	-17839
리브	-17840
림과	-17841
매김	-17842
먼은	-17843
무로	-17844
민정	-17845
바위	-17846
번대	-17847
보유	-17848
분경	-17849
색은	-17850
속은	-17851
수꾼	-17852
수입	-17853
스톡	-17854
시내	-17855
아트	-17856
어떤	-17857
여만	-17858
오염	-17859
왕은	-17860
운전	-17861
작농	-17862
적에	-17863
지어	-17864
처벌	-17865
철과	-17866
축을	-17867
치면	-17868
타니	-17869
테크	-17870
통상	-17871
틀을	-17872
파인	-17873
판결	-17874
포지	-17875
피스	-17876
하늘	-17877
항쟁	-17878
혐오	-17879
900	-17880
erb	-17881
gie	-17882
ual	-17883
urn	-17884
~34	-17885
▁5~	-17886
▁9,	-17887
▁AP	-17888
▁EU	-17889
▁UP	-17890
▁가짜	-17891
▁겪게	-17892
▁경멸	-17893
▁고다	-17894
▁고성	-17895
▁공용	-17896
▁공존	-17897
▁관동	-17898
▁구할	-17899
▁기쁨	-17900
▁김모	-17901
▁남기	-17902
▁내재	-17903
▁누락	-17904
▁늦은	-17905
▁닮은	-17906
▁대피	-17907
▁더해	-17908
▁도출	-17909
▁돌을	-17910
▁돕는	-17911
▁마술	-17912
▁몰랐	-17913
▁무상	-17914
▁문신	-17915
▁미르	-17916
▁미얀	-17917
▁미즈	-17918
▁밀란	-17919
▁밀리	-17920
▁바실	-17921
▁반포	-17922
▁발급	-17923
▁발기	-17924
▁방한	-17925
▁배려	-17926
▁배신	-17927
▁배타	-17928
▁베리	-17929
▁보위	-17930
▁본능	-17931
▁볼리	-17932
▁부설	-17933
▁뷔르	-17934
▁블로	-17935
▁비싸	-17936
▁사르	-17937
▁사면	-17938
▁사생	-17939
▁상급	-17940
▁생길	-17941
▁생일	-17942
▁선은	-17943
▁성분	-17944
▁순행	-17945
▁시국	-17946
▁시찰	-17947
▁신변	-17948
▁신창	-17949
▁아픔	-17950
▁양극	-17951
▁양을	-17952
▁연료	-17953
▁열병	-17954
▁예견	-17955
▁오슈	-17956
▁와다	-17957
▁왕비	-17958
▁용서	-17959
▁용역	-17960
▁우의	-17961
▁은폐	-17962
▁은혜	-17963
▁의논	-17964
▁이견	-17965
▁이브	-17966
▁이우	-17967
▁인연	-17968
▁일차	-17969
▁임팩	-17970
▁입힌	-17971
▁자산	-17972
▁장대	-17973
▁재무	-17974
▁전동	-17975
▁전세	-17976
▁점과	-17977
▁조력	-17978
▁조로	-17979
▁조리	-17980
▁조중	-17981
▁족보	-17982
▁주역	-17983
▁주오	-17984
▁주인	-17985
▁주체	-17986
▁중기	-17987
▁줬다	-17988
▁지소	-17989
▁지주	-17990
▁착한	-17991
▁챌린	-17992
▁청일	-17993
▁쳤다	-17994
▁총알	-17995
▁취해	-17996
▁측지	-17997
▁칼로	-17998
▁캐치	-17999
▁캠벨	-18000
▁컬러	-18001
▁컴필	-18002
▁쾰른	-18003
▁쿠루	-18004
▁타락	-18005
▁탐지	-18006
▁페어	-18007
▁하태	-18008
▁해마	-18009
▁헤드	-18010
▁형이	-18011
▁홍성	-18012
▁화랑	-18013
▁흩어	-18014
경제적	-18015
구조를	-18016
군단은	-18017
그루펜	-18018
김대중	-18019
나가는	-18020
니소스	-18021
대학은	-18022
대학의	-18023
됐다는	-18024
디우스	-18025
로동당	-18026
만달러	-18027
바타케	-18028
받았고	-18029
버스터	-18030
번으로	-18031
본부는	-18032
사건의	-18033
에게로	-18034
웨이는	-18035
위였던	-18036
익스피	-18037
잠수함	-18038
제도는	-18039
조에서	-18040
중이다	-18041
천만원	-18042
쳤으나	-18043
하자면	-18044
학위를	-18045
히로가	-18046
Fran	-18047
avid	-18048
ural	-18049
weet	-18050
▁119	-18051
▁450	-18052
▁550	-18053
▁Don	-18054
▁Ver	-18055
▁가문은	-18056
▁각본을	-18057
▁개체수	-18058
▁거처를	-18059
▁경제가	-18060
▁경찰서	-18061
▁고려의	-18062
▁골판의	-18063
▁곳곳에	-18064
▁공사에	-18065
▁관현악	-18066
▁국왕이	-18067
▁권리가	-18068
▁규정한	-18069
▁기사가	-18070
▁기생충	-18071
▁기준이	-18072
▁끔찍한	-18073
▁끼쳤다	-18074
▁나이를	-18075
▁누리꾼	-18076
▁다루고	-18077
▁대중적	-18078
▁데에는	-18079
▁데옹은	-18080
▁동맹군	-18081
▁되도록	-18082
▁말라고	-18083
▁말에서	-18084
▁매력을	-18085
▁멤버가	-18086
▁몇월에	-18087
▁모습은	-18088
▁물질로	-18089
▁물질의	-18090
▁미즈가	-18091
▁밀도가	-18092
▁바꾸고	-18093
▁바꾸는	-18094
▁바뀌는	-18095
▁바치는	-18096
▁박도영	-18097
▁박지원	-18098
▁반란에	-18099
▁반정부	-18100
▁받아서	-18101
▁발달한	-18102
▁방송한	-18103
▁보고가	-18104
▁봉기가	-18105
▁부인이	-18106
▁부진을	-18107
▁비하여	-18108
▁사퇴를	-18109
▁살아가	-18110
▁살해된	-18111
▁생일을	-18112
▁서둘러	-18113
▁서로를	-18114
▁섬으로	-18115
▁섹시한	-18116
▁소식에	-18117
▁소재를	-18118
▁수상을	-18119
▁스톤의	-18120
▁시간과	-18121
▁시간의	-18122
▁시장을	-18123
▁시체를	-18124
▁시험을	-18125
▁신경을	-18126
▁싶다고	-18127
▁아나운	-18128
▁아내인	-18129
▁아니야	-18130
▁아키나	-18131
▁언론사	-18132
▁엔진을	-18133
▁엘비스	-18134
▁엠블럼	-18135
▁여지전	-18136
▁여파로	-18137
▁역까지	-18138
▁연결된	-18139
▁연주한	-18140
▁열렸던	-18141
▁영어의	-18142
▁영역에	-18143
▁예수가	-18144
▁오르트	-18145
▁올렸고	-18146
▁요구에	-18147
▁원정을	-18148
▁음식은	-18149
▁의견도	-18150
▁의사가	-18151
▁의사의	-18152
▁의심을	-18153
▁의원을	-18154
▁이기고	-18155
▁이벤트	-18156
▁인수한	-18157
▁인조반	-18158
▁일부의	-18159
▁일이다	-18160
▁일행은	-18161
▁입자가	-18162
▁입장에	-18163
▁전하를	-18164
▁접근을	-18165
▁정당화	-18166
▁정도는	-18167
▁정보는	-18168
▁정치는	-18169
▁정하고	-18170
▁제네바	-18171
▁제주마	-18172
▁조항은	-18173
▁주기는	-18174
▁주니치	-18175
▁줄어든	-18176
▁중성미	-18177
▁지나면	-18178
▁지키는	-18179
▁진실을	-18180
▁질병에	-18181
▁집어넣	-18182
▁차지해	-18183
▁철수를	-18184
▁촬영에	-18185
▁출연을	-18186
▁코라의	-18187
▁코치로	-18188
▁콘돈이	-18189
▁토크쇼	-18190
▁토트넘	-18191
▁표현할	-18192
▁프레이	-18193
▁하려는	-18194
▁함대를	-18195
▁해마다	-18196
▁해안에	-18197
▁향상을	-18198
▁혹평을	-18199
▁확인한	-18200
▁확장팩	-18201
▁훈장을	-18202
▁흔적이	-18203
▁히트를	-18204
캠퍼스는	-18205
학자들이	-18206
obody	-18207
▁1774	-18208
▁1855	-18209
▁4·19	-18210
▁Baby	-18211
▁Good	-18212
▁Soul	-18213
▁가우스가	-18214
▁간격으로	-18215
▁개시했다	-18216
▁것으로서	-18217
▁결승선을	-18218
▁고향으로	-18219
▁관련해서	-18220
▁관해서는	-18221
▁국가들이	-18222
▁국민에게	-18223
▁국정원의	-18224
▁극단적인	-18225
▁기본으로	-18226
▁나중에는	-18227
▁나타낸다	-18228
▁노력했다	-18229
▁다르푸르	-18230
▁다스리는	-18231
▁대다수의	-18232
▁대항하는	-18233
▁데뷔작은	-18234
▁되었으나	-18235
▁등장했다	-18236
▁뛰어넘는	-18237
▁뢴트겐이	-18238
▁만슈타인	-18239
▁명성황후	-18240
▁명확하게	-18241
▁모치히토	-18242
▁못했지만	-18243
▁미국과의	-18244
▁믹스테잎	-18245
▁바르샤바	-18246
▁방면으로	-18247
▁보편적인	-18248
▁브라질의	-18249
▁비디오를	-18250
▁비상대책	-18251
▁사망하고	-18252
▁사상자가	-18253
▁살아가는	-18254
▁상위권에	-18255
▁생각하여	-18256
▁서인영의	-18257
▁설치하는	-18258
▁세월호의	-18259
▁스케이트	-18260
▁스페이스	-18261
▁스페인이	-18262
▁아이폰을	-18263
▁아직까지	-18264
▁안드레아	-18265
▁안중근이	-18266
▁언론에서	-18267
▁역사적인	-18268
▁오버워치	-18269
▁오프라인	-18270
▁유전자를	-18271
▁이순신은	-18272
▁이준기가	-18273
▁이해하고	-18274
▁있는것은	-18275
▁자리매김	-18276
▁자신만의	-18277
▁전태일은	-18278
▁절대적인	-18279
▁제기되고	-18280
▁중시하는	-18281
▁중요하다	-18282
▁지도자로	-18283
▁추정되고	-18284
▁카스트로	-18285
▁킬로그램	-18286
▁폴란드를	-18287
▁플라스틱	-18288
▁하느님의	-18289
▁항공우주	-18290
▁헤시오도	-18291
▁회원들이	-18292
▁후반부터	-18293
▁Girls	-18294
▁Jiggy	-18295
▁Suica	-18296
▁거부하였다	-18297
▁경제적으로	-18298
▁기타바타케	-18299
▁단식투쟁을	-18300
▁대중들에게	-18301
▁대한민국과	-18302
▁대회에서는	-18303
▁맥그리거는	-18304
▁발생하였다	-18305
▁새정치국민	-18306
▁선고받았다	-18307
▁설립하였다	-18308
▁실시하였다	-18309
▁아르메니아	-18310
▁얼마였는가	-18311
▁여우주연상	-18312
▁유대인들이	-18313
▁자체적으로	-18314
▁제안하였다	-18315
▁청와대에서	-18316
▁평균자책점	-18317
▁프로젝트에	-18318
▁플로지스톤	-18319
▁학생들에게	-18320
▁홈페이지를	-18321
▁활동전위가	-18322
▁교육과학기술	-18323
▁라스베이거스	-18324
▁프리드리히의	-18325
▁스테고케라스의	-18326
▁아인자츠그루펜	-18327
▁옥타비아누스에게	-18328
(8	-18329
An	-18330
HO	-18331
It	-18332
ME	-18333
bl	-18334
eg	-18335
tr	-18336
”,	-18337
▁냥	-18338
▁땄	-18339
▁료	-18340
▁찔	-18341
▁캡	-18342
▁킴	-18343
▁턴	-18344
親王	-18345
가량	-18346
겼던	-18347
공영	-18348
과로	-18349
국어	-18350
규가	-18351
글리	-18352
금암	-18353
기본	-18354
기압	-18355
기억	-18356
나치	-18357
녀가	-18358
니크	-18359
다로	-18360
더와	-18361
덕궁	-18362
딩을	-18363
라우	-18364
만주	-18365
머를	-18366
물질	-18367
법칙	-18368
복의	-18369
볼넷	-18370
부산	-18371
분자	-18372
상인	-18373
생은	-18374
슬링	-18375
애가	-18376
업무	-18377
여개	-18378
여객	-18379
유키	-18380
음모	-18381
이엇	-18382
인간	-18383
인물	-18384
저우	-18385
전차	-18386
절의	-18387
제비	-18388
주택	-18389
짓는	-18390
처에	-18391
총회	-18392
측에	-18393
타마	-18394
탈삼	-18395
터로	-18396
통에	-18397
티넨	-18398
퍼는	-18399
퍼처	-18400
포스	-18401
플레	-18402
플루	-18403
피오	-18404
한의	-18405
합창	-18406
해군	-18407
해상	-18408
현상	-18409
형제	-18410
희와	-18411
.9%	-18412
Har	-18413
SPN	-18414
any	-18415
axi	-18416
bum	-18417
ele	-18418
ger	-18419
ign	-18420
oun	-18421
raw	-18422
ull	-18423
~20	-18424
▁"'	-18425
▁1%	-18426
▁2/	-18427
▁가드	-18428
▁각인	-18429
▁간담	-18430
▁거둬	-18431
▁검출	-18432
▁격하	-18433
▁경에	-18434
▁경희	-18435
▁고아	-18436
▁고찰	-18437
▁공소	-18438
▁과천	-18439
▁광역	-18440
▁구마	-18441
▁귀여	-18442
▁기로	-18443
▁기숙	-18444
▁김문	-18445
▁김순	-18446
▁김옥	-18447
▁김장	-18448
▁꼽은	-18449
▁날인	-18450
▁내며	-18451
▁내포	-18452
▁네트	-18453
▁년을	-18454
▁농심	-18455
▁대본	-18456
▁둥근	-18457
▁래리	-18458
▁로동	-18459
▁로열	-18460
▁마티	-18461
▁많을	-18462
▁매번	-18463
▁맥스	-18464
▁멘토	-18465
▁모던	-18466
▁모음	-18467
▁몰고	-18468
▁무방	-18469
▁무술	-18470
▁미만	-18471
▁민감	-18472
▁민사	-18473
▁민영	-18474
▁바예	-18475
▁박연	-18476
▁박철	-18477
▁발목	-18478
▁발터	-18479
▁발효	-18480
▁방치	-18481
▁범람	-18482
▁병역	-18483
▁보궐	-18484
▁복종	-18485
▁분당	-18486
▁불쾌	-18487
▁사신	-18488
▁사자	-18489
▁사항	-18490
▁산출	-18491
▁상기	-18492
▁상류	-18493
▁서산	-18494
▁서태	-18495
▁설도	-18496
▁성신	-18497
▁성취	-18498
▁세븐	-18499
▁소매	-18500
▁쇼군	-18501
▁시흥	-18502
▁안도	-18503
▁알현	-18504
▁앞당	-18505
▁엔드	-18506
▁엥겔	-18507
▁열광	-18508
▁열꽃	-18509
▁오차	-18510
▁올해	-18511
▁외면	-18512
▁요원	-18513
▁요툰	-18514
▁월에	-18515
▁위만	-18516
▁유해	-18517
▁율법	-18518
▁이부	-18519
▁일기	-18520
▁임창	-18521
▁자막	-18522
▁작년	-18523
▁잡기	-18524
▁장택	-18525
▁전지	-18526
▁접견	-18527
▁정옥	-18528
▁제너	-18529
▁조슈	-18530
▁조희	-18531
▁종족	-18532
▁좌완	-18533
▁죄를	-18534
▁주사	-18535
▁죽일	-18536
▁지옥	-18537
▁진종	-18538
▁집대	-18539
▁짓고	-18540
▁차출	-18541
▁처녀	-18542
▁천명	-18543
▁청량	-18544
▁청탁	-18545
▁출혈	-18546
▁치즈	-18547
▁침체	-18548
▁칭송	-18549
▁캔디	-18550
▁캔자	-18551
▁컨디	-18552
▁코믹	-18553
▁콘코	-18554
▁크롬	-18555
▁키워	-18556
▁타르	-18557
▁탐색	-18558
▁토목	-18559
▁투항	-18560
▁판본	-18561
▁판테	-18562
▁패전	-18563
▁페퍼	-18564
▁편견	-18565
▁포에	-18566
▁피라	-18567
▁하리	-18568
▁함은	-18569
▁혼동	-18570
▁혼성	-18571
▁홍진	-18572
▁화려	-18573
▁황국	-18574
▁회동	-18575
▁회수	-18576
▁효고	-18577
▁휘두	-18578
▁흑백	-18579
거리가	-18580
겠지만	-18581
그룹의	-18582
나무를	-18583
냈으며	-18584
대사를	-18585
민들을	-18586
민들이	-18587
박물관	-18588
산에서	-18589
서에는	-18590
석으로	-18591
수에서	-18592
씨에게	-18593
여명이	-18594
우리가	-18595
중공업	-18596
카드를	-18597
케라톱	-18598
터그래	-18599
터에서	-18600
하느냐	-18601
했기에	-18602
itch	-18603
rain	-18604
rans	-18605
ruct	-18606
stit	-18607
▁0-1	-18608
▁1/3	-18609
▁105	-18610
▁2-0	-18611
▁2.5	-18612
▁211	-18613
▁25%	-18614
▁DLC	-18615
▁Hot	-18616
▁Mon	-18617
▁New	-18618
▁Now	-18619
▁가로막	-18620
▁가지가	-18621
▁강력히	-18622
▁개정된	-18623
▁갤러리	-18624
▁거짓말	-18625
▁경제에	-18626
▁고유한	-18627
▁공약을	-18628
▁관측을	-18629
▁교각의	-18630
▁교류를	-18631
▁구간을	-18632
▁국유화	-18633
▁국호를	-18634
▁극적인	-18635
▁긍정적	-18636
▁기원후	-18637
▁나라다	-18638
▁넣었다	-18639
▁논란에	-18640
▁논란은	-18641
▁논쟁의	-18642
▁눈물을	-18643
▁니체가	-18644
▁닥터를	-18645
▁단장은	-18646
▁당연히	-18647
▁대단한	-18648
▁대변인	-18649
▁대본을	-18650
▁도나우	-18651
▁두각을	-18652
▁똑같이	-18653
▁뜻한다	-18654
▁라이너	-18655
▁라파엘	-18656
▁레오넬	-18657
▁리우트	-18658
▁만남을	-18659
▁만화를	-18660
▁많았던	-18661
▁많으며	-18662
▁명확히	-18663
▁몇위를	-18664
▁몇으로	-18665
▁문화에	-18666
▁미즈는	-18667
▁미하일	-18668
▁민족은	-18669
▁바이오	-18670
▁방안이	-18671
▁배경이	-18672
▁배드애	-18673
▁배우기	-18674
▁버려진	-18675
▁범위가	-18676
▁벤허를	-18677
▁변희재	-18678
▁별명을	-18679
▁보냈고	-18680
▁분쟁을	-18681
▁불안정	-18682
▁비교해	-18683
▁비핵화	-18684
▁사고에	-18685
▁사하라	-18686
▁상태의	-18687
▁생물은	-18688
▁선고를	-18689
▁선고한	-18690
▁성경을	-18691
▁세드나	-18692
▁세포의	-18693
▁소화해	-18694
▁수단을	-18695
▁수단이	-18696
▁슬라이	-18697
▁신드롬	-18698
▁싱어송	-18699
▁아폴로	-18700
▁애비뉴	-18701
▁애퍼처	-18702
▁앨범인	-18703
▁양자로	-18704
[...]
